{
  "merges": [
    [
      "<DANDA>",
      "</M>"
    ],
    [
      "<DANDA2>",
      "</M>"
    ],
    [
      "न्",
      "</M>"
    ],
    [
      "त्",
      "</M>"
    ],
    [
      "म्",
      "</M>"
    ],
    [
      "च",
      "</M>"
    ],
    [
      "न",
      "</M>"
    ],
    [
      "व",
      "</M>"
    ],
    [
      "द्",
      "</M>"
    ],
    [
      "ते",
      "</M>"
    ],
    [
      "स्य",
      "</M>"
    ],
    [
      "तः",
      "</M>"
    ],
    [
      "म",
      "हा"
    ],
    [
      "ति",
      "</M>"
    ],
    [
      "तं",
      "</M>"
    ],
    [
      "स",
      "</M>"
    ],
    [
      "त",
      "</M>"
    ],
    [
      "म",
      "</M>"
    ],
    [
      "स",
      "न्</M>"
    ],
    [
      "ता",
      "</M>"
    ],
    [
      "तो",
      "</M>"
    ],
    [
      "नं",
      "</M>"
    ],
    [
      "नः",
      "</M>"
    ],
    [
      "था",
      "</M>"
    ],
    [
      "य",
      "</M>"
    ],
    [
      "नि",
      "</M>"
    ],
    [
      "रा",
      "ज"
    ],
    [
      "वा",
      "च</M>"
    ],
    [
      "या",
      "</M>"
    ],
    [
      "त्वा",
      "</M>"
    ],
    [
      "पि",
      "</M>"
    ],
    [
      "यं",
      "</M>"
    ],
    [
      "रं",
      "</M>"
    ],
    [
      "नां",
      "</M>"
    ],
    [
      "तु",
      "</M>"
    ],
    [
      "त्र",
      "</M>"
    ],
    [
      "ह",
      "</M>"
    ],
    [
      "हि",
      "</M>"
    ],
    [
      "दा",
      "</M>"
    ],
    [
      "त",
      "म्</M>"
    ],
    [
      "उ",
      "वाच</M>"
    ],
    [
      "स",
      "र्व"
    ],
    [
      "ण",
      "</M>"
    ],
    [
      "षु",
      "</M>"
    ],
    [
      "स",
      "म"
    ],
    [
      "मे",
      "</M>"
    ],
    [
      "ताः",
      "</M>"
    ],
    [
      "यः",
      "</M>"
    ],
    [
      "तां",
      "</M>"
    ],
    [
      "रः",
      "</M>"
    ],
    [
      "ङ्",
      "</M>"
    ],
    [
      "सा",
      "</M>"
    ],
    [
      "ञ्",
      "</M>"
    ],
    [
      "सि",
      "</M>"
    ],
    [
      "वं",
      "</M>"
    ],
    [
      "प",
      "र"
    ],
    [
      "र",
      "</M>"
    ],
    [
      "ना",
      "</M>"
    ],
    [
      "मि",
      "</M>"
    ],
    [
      "वा",
      "न्</M>"
    ],
    [
      "वा",
      "</M>"
    ],
    [
      "हं",
      "</M>"
    ],
    [
      "य",
      "त्</M>"
    ],
    [
      "भ",
      "व"
    ],
    [
      "लं",
      "</M>"
    ],
    [
      "णि",
      "</M>"
    ],
    [
      "श्",
      "</M>"
    ],
    [
      "स्",
      "</M>"
    ],
    [
      "रे",
      "</M>"
    ],
    [
      "स",
      "ङ्</M>"
    ],
    [
      "दं",
      "</M>"
    ],
    [
      "म",
      "ह"
    ],
    [
      "स",
      "ह"
    ],
    [
      "ने",
      "</M>"
    ],
    [
      "प्र",
      "ति"
    ],
    [
      "न",
      "म्</M>"
    ],
    [
      "णां",
      "</M>"
    ],
    [
      "वै",
      "</M>"
    ],
    [
      "त",
      "था</M>"
    ],
    [
      "त",
      "स्य</M>"
    ],
    [
      "ध",
      "र्म"
    ],
    [
      "णं",
      "</M>"
    ],
    [
      "भिः",
      "</M>"
    ],
    [
      "त",
      "त्</M>"
    ],
    [
      "ये",
      "</M>"
    ],
    [
      "यो",
      "</M>"
    ],
    [
      "त",
      "तः</M>"
    ],
    [
      "ब्र",
      "वी"
    ],
    [
      "पा",
      "ण्ड"
    ],
    [
      "वः",
      "</M>"
    ],
    [
      "नो",
      "</M>"
    ],
    [
      "मं",
      "</M>"
    ],
    [
      "मः",
      "</M>"
    ],
    [
      "य",
      "था</M>"
    ],
    [
      "णः",
      "</M>"
    ],
    [
      "दे",
      "व"
    ],
    [
      "त",
      "तो</M>"
    ],
    [
      "ता",
      "न्</M>"
    ],
    [
      "थ",
      "</M>"
    ],
    [
      "राज",
      "न्</M>"
    ],
    [
      "त",
      "म"
    ],
    [
      "रा",
      "</M>"
    ],
    [
      "यु",
      "धि"
    ],
    [
      "प",
      "</M>"
    ],
    [
      "दृ",
      "ष्ट्वा</M>"
    ],
    [
      "त",
      "दा</M>"
    ],
    [
      "कं",
      "</M>"
    ],
    [
      "णे",
      "</M>"
    ],
    [
      "तो",
      "ऽ"
    ],
    [
      "ग",
      "त्</M>"
    ],
    [
      "त",
      "त्र</M>"
    ],
    [
      "रा",
      "क्ष"
    ],
    [
      "भा",
      "र"
    ],
    [
      "दु",
      "</M>"
    ],
    [
      "चै",
      "व</M>"
    ],
    [
      "दु",
      "श्</M>"
    ],
    [
      "दु",
      "स्</M>"
    ],
    [
      "षां",
      "</M>"
    ],
    [
      "सर्वे",
      "</M>"
    ],
    [
      "स",
      "ञ्</M>"
    ],
    [
      "द",
      "</M>"
    ],
    [
      "रो",
      "</M>"
    ],
    [
      "य",
      "म्</M>"
    ],
    [
      "पु",
      "रु"
    ],
    [
      "या",
      "मा"
    ],
    [
      "तौ",
      "</M>"
    ],
    [
      "शः",
      "</M>"
    ],
    [
      "णा",
      "</M>"
    ],
    [
      "र",
      "म्</M>"
    ],
    [
      "राजा",
      "</M>"
    ],
    [
      "य",
      "था"
    ],
    [
      "ते",
      "न</M>"
    ],
    [
      "ब्रा",
      "ह्म"
    ],
    [
      "ले",
      "</M>"
    ],
    [
      "सः",
      "</M>"
    ],
    [
      "ब्रवी",
      "त्</M>"
    ],
    [
      "भ",
      "र"
    ],
    [
      "यु",
      "द्</M>"
    ],
    [
      "द",
      "र्श"
    ],
    [
      "म",
      "म</M>"
    ],
    [
      "युधि",
      "ष्ठि"
    ],
    [
      "तिः",
      "</M>"
    ],
    [
      "म",
      "नु"
    ],
    [
      "ष",
      "</M>"
    ],
    [
      "त",
      "द्</M>"
    ],
    [
      "शं",
      "</M>"
    ],
    [
      "थं",
      "</M>"
    ],
    [
      "यामा",
      "स</M>"
    ],
    [
      "मां",
      "</M>"
    ],
    [
      "स",
      "त्</M>"
    ],
    [
      "वृ",
      "त्</M>"
    ],
    [
      "न",
      "म"
    ],
    [
      "मा",
      "न्</M>"
    ],
    [
      "ता",
      "म्</M>"
    ],
    [
      "ब",
      "ल"
    ],
    [
      "कु",
      "रु"
    ],
    [
      "बु",
      "द्</M>"
    ],
    [
      "भार",
      "त</M>"
    ],
    [
      "य",
      "न्</M>"
    ],
    [
      "श",
      "</M>"
    ],
    [
      "ब्र",
      "ह्म"
    ],
    [
      "म",
      "या</M>"
    ],
    [
      "राः",
      "</M>"
    ],
    [
      "वा",
      "न"
    ],
    [
      "भी",
      "म"
    ],
    [
      "क",
      "र्म"
    ],
    [
      "श",
      "र"
    ],
    [
      "खं",
      "</M>"
    ],
    [
      "पु",
      "न"
    ],
    [
      "पु",
      "त्र"
    ],
    [
      "प",
      "ति"
    ],
    [
      "त",
      "व</M>"
    ],
    [
      "त्मा",
      "</M>"
    ],
    [
      "मा",
      "</M>"
    ],
    [
      "से",
      "</M>"
    ],
    [
      "ब",
      "हु"
    ],
    [
      "र",
      "णे</M>"
    ],
    [
      "चि",
      "त्</M>"
    ],
    [
      "के",
      "</M>"
    ],
    [
      "व",
      "च"
    ],
    [
      "कः",
      "</M>"
    ],
    [
      "ता",
      "नि</M>"
    ],
    [
      "मा",
      "न"
    ],
    [
      "ष्य",
      "ति</M>"
    ],
    [
      "धं",
      "</M>"
    ],
    [
      "दि",
      "</M>"
    ],
    [
      "व",
      "त्</M>"
    ],
    [
      "ए",
      "व"
    ],
    [
      "किं",
      "</M>"
    ],
    [
      "क्रु",
      "द्</M>"
    ],
    [
      "राज",
      "</M>"
    ],
    [
      "भ",
      "ग"
    ],
    [
      "सो",
      "ऽ"
    ],
    [
      "त",
      "त"
    ],
    [
      "ण",
      "म्</M>"
    ],
    [
      "त",
      "प"
    ],
    [
      "श्रु",
      "त्वा</M>"
    ],
    [
      "रा",
      "व"
    ],
    [
      "सं",
      "</M>"
    ],
    [
      "ध",
      "न"
    ],
    [
      "र",
      "थ"
    ],
    [
      "लो",
      "क"
    ],
    [
      "य",
      "ते</M>"
    ],
    [
      "णो",
      "</M>"
    ],
    [
      "महा",
      "त्म"
    ],
    [
      "स्मि",
      "न्</M>"
    ],
    [
      "शा",
      "स"
    ],
    [
      "म",
      "न"
    ],
    [
      "वो",
      "</M>"
    ],
    [
      "कृ",
      "त"
    ],
    [
      "प",
      "श्य"
    ],
    [
      "द",
      "त्</M>"
    ],
    [
      "व",
      "न्</M>"
    ],
    [
      "धे",
      "</M>"
    ],
    [
      "त",
      "स्मा"
    ],
    [
      "पं",
      "</M>"
    ],
    [
      "मो",
      "</M>"
    ],
    [
      "नी",
      "</M>"
    ],
    [
      "तैः",
      "</M>"
    ],
    [
      "ज",
      "य</M>"
    ],
    [
      "नि",
      "ह"
    ],
    [
      "ल",
      "</M>"
    ],
    [
      "यां",
      "</M>"
    ],
    [
      "स",
      "त्य"
    ],
    [
      "क",
      "थं</M>"
    ],
    [
      "दु",
      "र्यो"
    ],
    [
      "महा",
      "राज</M>"
    ],
    [
      "वे",
      "</M>"
    ],
    [
      "रा",
      "न्</M>"
    ],
    [
      "य",
      "दि</M>"
    ],
    [
      "को",
      "</M>"
    ],
    [
      "धा",
      "</M>"
    ],
    [
      "वै",
      "श"
    ],
    [
      "मे",
      "व</M>"
    ],
    [
      "चा",
      "पि</M>"
    ],
    [
      "इ",
      "ति</M>"
    ],
    [
      "रा",
      "घ"
    ],
    [
      "य",
      "न</M>"
    ],
    [
      "पृ",
      "थि"
    ],
    [
      "ति",
      "ष्ठ"
    ],
    [
      "मि",
      "त्</M>"
    ],
    [
      "भर",
      "त"
    ],
    [
      "ल",
      "क्ष्म"
    ],
    [
      "धो",
      "</M>"
    ],
    [
      "जः",
      "</M>"
    ],
    [
      "वैश",
      "म्पा"
    ],
    [
      "वैशम्पा",
      "यन</M>"
    ],
    [
      "क",
      "थ"
    ],
    [
      "तुं",
      "</M>"
    ],
    [
      "भीम",
      "से"
    ],
    [
      "सु",
      "ख"
    ],
    [
      "षा",
      "</M>"
    ],
    [
      "ष्या",
      "मि</M>"
    ],
    [
      "रा",
      "म"
    ],
    [
      "पु",
      "र"
    ],
    [
      "थै",
      "व</M>"
    ],
    [
      "र्ष",
      "भ"
    ],
    [
      "ती",
      "</M>"
    ],
    [
      "त्व",
      "या</M>"
    ],
    [
      "इ",
      "व</M>"
    ],
    [
      "महा",
      "बा"
    ],
    [
      "ज",
      "न"
    ],
    [
      "न",
      "र"
    ],
    [
      "का",
      "र"
    ],
    [
      "पः",
      "</M>"
    ],
    [
      "ते",
      "ऽ"
    ],
    [
      "व",
      "र्त</M>"
    ],
    [
      "व",
      "र"
    ],
    [
      "वाः",
      "</M>"
    ],
    [
      "श",
      "न्</M>"
    ],
    [
      "सम",
      "रे</M>"
    ],
    [
      "ग",
      "न्ध"
    ],
    [
      "एव",
      "मु"
    ],
    [
      "हो",
      "</M>"
    ],
    [
      "ते",
      "षां</M>"
    ],
    [
      "पुरु",
      "ष"
    ],
    [
      "वि",
      "शा"
    ],
    [
      "त",
      "रा"
    ],
    [
      "ने",
      "न</M>"
    ],
    [
      "म",
      "त्</M>"
    ],
    [
      "ज",
      "य"
    ],
    [
      "पा",
      "र्थि"
    ],
    [
      "वि",
      "वि"
    ],
    [
      "त",
      "द"
    ],
    [
      "त",
      "रं</M>"
    ],
    [
      "य",
      "त्र</M>"
    ],
    [
      "क",
      "म्</M>"
    ],
    [
      "सु",
      "</M>"
    ],
    [
      "ना",
      "म</M>"
    ],
    [
      "म",
      "र्ह"
    ],
    [
      "ध",
      "</M>"
    ],
    [
      "य",
      "म"
    ],
    [
      "र्षभ",
      "</M>"
    ],
    [
      "शो",
      "</M>"
    ],
    [
      "ह",
      "र"
    ],
    [
      "याः",
      "</M>"
    ],
    [
      "त्वां",
      "</M>"
    ],
    [
      "या",
      "त्</M>"
    ],
    [
      "ग",
      "तः</M>"
    ],
    [
      "ला",
      "</M>"
    ],
    [
      "का",
      "म"
    ],
    [
      "श",
      "त"
    ],
    [
      "स",
      "दा</M>"
    ],
    [
      "तम",
      "म्</M>"
    ],
    [
      "ते",
      "ज"
    ],
    [
      "प्र",
      "जा"
    ],
    [
      "त",
      "र"
    ],
    [
      "प्र",
      "वि"
    ],
    [
      "धः",
      "</M>"
    ],
    [
      "का",
      "ल"
    ],
    [
      "वृ",
      "द्</M>"
    ],
    [
      "र",
      "क्ष"
    ],
    [
      "व",
      "म्</M>"
    ],
    [
      "क",
      "र्ण"
    ],
    [
      "द",
      "म"
    ],
    [
      "सि",
      "न्</M>"
    ],
    [
      "ल",
      "म्</M>"
    ],
    [
      "धि",
      "</M>"
    ],
    [
      "दः",
      "</M>"
    ],
    [
      "भो",
      "</M>"
    ],
    [
      "सि",
      "द्</M>"
    ],
    [
      "वि",
      "नि"
    ],
    [
      "य",
      "स्य</M>"
    ],
    [
      "मि",
      "व</M>"
    ],
    [
      "नि",
      "त्यं</M>"
    ],
    [
      "वा",
      "र"
    ],
    [
      "वि",
      "क्र"
    ],
    [
      "ष्टं",
      "</M>"
    ],
    [
      "ये",
      "न</M>"
    ],
    [
      "का",
      "</M>"
    ],
    [
      "ऽ",
      "पि</M>"
    ],
    [
      "सा",
      "द्य</M>"
    ],
    [
      "क्ष",
      "त्रि"
    ],
    [
      "च",
      "र"
    ],
    [
      "पि",
      "ता"
    ],
    [
      "धृ",
      "तरा"
    ],
    [
      "युधिष्ठि",
      "र</M>"
    ],
    [
      "षं",
      "</M>"
    ],
    [
      "कौ",
      "र"
    ],
    [
      "प",
      "त"
    ],
    [
      "ता",
      "नां</M>"
    ],
    [
      "गे",
      "</M>"
    ],
    [
      "व",
      "द"
    ],
    [
      "प्र",
      "त्य"
    ],
    [
      "णाः",
      "</M>"
    ],
    [
      "शे",
      "</M>"
    ],
    [
      "च",
      "तु"
    ],
    [
      "क",
      "</M>"
    ],
    [
      "या",
      "न्</M>"
    ],
    [
      "ऽ",
      "ऽ"
    ],
    [
      "जी",
      "वि"
    ],
    [
      "वच",
      "नं</M>"
    ],
    [
      "लः",
      "</M>"
    ],
    [
      "कि",
      "ञ्</M>"
    ],
    [
      "त",
      "था"
    ],
    [
      "वे",
      "द"
    ],
    [
      "द",
      "श"
    ],
    [
      "सह",
      "स्र"
    ],
    [
      "ज",
      "गा"
    ],
    [
      "अ",
      "भि"
    ],
    [
      "यो",
      "ऽ"
    ],
    [
      "वि",
      "द्</M>"
    ],
    [
      "द",
      "क्षि"
    ],
    [
      "यौ",
      "</M>"
    ],
    [
      "ष्टा",
      "</M>"
    ],
    [
      "य",
      "द्</M>"
    ],
    [
      "वचः",
      "</M>"
    ],
    [
      "तुः",
      "</M>"
    ],
    [
      "णा",
      "न्</M>"
    ],
    [
      "ब",
      "भू"
    ],
    [
      "काः",
      "</M>"
    ],
    [
      "त",
      "स्या"
    ],
    [
      "ना",
      "म्</M>"
    ],
    [
      "वि",
      "ष"
    ],
    [
      "प",
      "ञ्च"
    ],
    [
      "ना",
      "म"
    ],
    [
      "भौ",
      "</M>"
    ],
    [
      "भवे",
      "त्</M>"
    ],
    [
      "मह",
      "त्</M>"
    ],
    [
      "त",
      "थैव</M>"
    ],
    [
      "ते",
      "षु</M>"
    ],
    [
      "धन",
      "ञ्</M>"
    ],
    [
      "सो",
      "</M>"
    ],
    [
      "अ",
      "थ</M>"
    ],
    [
      "श्रे",
      "ष्ठ"
    ],
    [
      "सर्व",
      "भू"
    ],
    [
      "शरैः",
      "</M>"
    ],
    [
      "चि",
      "न्त"
    ],
    [
      "पर",
      "म"
    ],
    [
      "र",
      "म"
    ],
    [
      "त",
      "स्मिन्</M>"
    ],
    [
      "वा",
      "क्यं</M>"
    ],
    [
      "वी",
      "र्य"
    ],
    [
      "भी",
      "ष्म</M>"
    ],
    [
      "ता",
      "प"
    ],
    [
      "हा",
      "</M>"
    ],
    [
      "द्रो",
      "ण"
    ],
    [
      "यि",
      "</M>"
    ],
    [
      "वि",
      "त्</M>"
    ],
    [
      "छ",
      "ति</M>"
    ],
    [
      "सौ",
      "</M>"
    ],
    [
      "दा",
      "य</M>"
    ],
    [
      "नाः",
      "</M>"
    ],
    [
      "च",
      "न</M>"
    ],
    [
      "व",
      "न"
    ],
    [
      "व",
      "स"
    ],
    [
      "वा",
      "सु"
    ],
    [
      "शो",
      "क"
    ],
    [
      "णैः",
      "</M>"
    ],
    [
      "दौ",
      "</M>"
    ],
    [
      "दो",
      "</M>"
    ],
    [
      "जं",
      "</M>"
    ],
    [
      "दु",
      "रा"
    ],
    [
      "ए",
      "ष</M>"
    ],
    [
      "योः",
      "</M>"
    ],
    [
      "ज",
      "</M>"
    ],
    [
      "शृ",
      "णु"
    ],
    [
      "गं",
      "</M>"
    ],
    [
      "सा",
      "ग"
    ],
    [
      "लो",
      "</M>"
    ],
    [
      "तिं",
      "</M>"
    ],
    [
      "मर्ह",
      "सि</M>"
    ],
    [
      "सु",
      "ग्री"
    ],
    [
      "ना",
      "ना"
    ],
    [
      "क",
      "रो"
    ],
    [
      "पृथि",
      "वी"
    ],
    [
      "णी",
      "</M>"
    ],
    [
      "दा",
      "न"
    ],
    [
      "रि",
      "व</M>"
    ],
    [
      "ह",
      "म्</M>"
    ],
    [
      "भे",
      "</M>"
    ],
    [
      "वि",
      "</M>"
    ],
    [
      "वि",
      "धि"
    ],
    [
      "प्रा",
      "प्य</M>"
    ],
    [
      "यि",
      "त्वा</M>"
    ],
    [
      "री",
      "</M>"
    ],
    [
      "यु",
      "गे</M>"
    ],
    [
      "ये",
      "त्</M>"
    ],
    [
      "प्र",
      "भा"
    ],
    [
      "राजे",
      "न्द्र</M>"
    ],
    [
      "छ",
      "</M>"
    ],
    [
      "कौ",
      "न्ते"
    ],
    [
      "म",
      "धु"
    ],
    [
      "नै",
      "व</M>"
    ],
    [
      "पा",
      "प"
    ],
    [
      "श",
      "म्</M>"
    ],
    [
      "हुः",
      "</M>"
    ],
    [
      "का",
      "न्</M>"
    ],
    [
      "नौ",
      "</M>"
    ],
    [
      "गु",
      "रु"
    ],
    [
      "पा",
      "ल"
    ],
    [
      "जगा",
      "म</M>"
    ],
    [
      "तस्मा",
      "त्</M>"
    ],
    [
      "श्रेष्ठ",
      "</M>"
    ],
    [
      "क्",
      "</M>"
    ],
    [
      "रू",
      "प"
    ],
    [
      "वि",
      "दु"
    ],
    [
      "पू",
      "र्व"
    ],
    [
      "मु",
      "नि"
    ],
    [
      "छा",
      "मि</M>"
    ],
    [
      "नी",
      "म्</M>"
    ],
    [
      "वा",
      "स"
    ],
    [
      "ना",
      "त्</M>"
    ],
    [
      "ना",
      "रा"
    ],
    [
      "न",
      "स्य</M>"
    ],
    [
      "नु",
      "</M>"
    ],
    [
      "फ",
      "लं</M>"
    ],
    [
      "दा",
      "रु"
    ],
    [
      "पृ",
      "त्</M>"
    ],
    [
      "चे",
      "त"
    ],
    [
      "क",
      "रि"
    ],
    [
      "धा",
      "र"
    ],
    [
      "ता",
      "त</M>"
    ],
    [
      "हः",
      "</M>"
    ],
    [
      "अ",
      "नु"
    ],
    [
      "म",
      "पि</M>"
    ],
    [
      "महा",
      "बलः</M>"
    ],
    [
      "बा",
      "हु"
    ],
    [
      "भा",
      "ष"
    ],
    [
      "श",
      "यः</M>"
    ],
    [
      "कु",
      "ल"
    ],
    [
      "ण",
      "स्य</M>"
    ],
    [
      "गृ",
      "ह्य</M>"
    ],
    [
      "णे",
      "न</M>"
    ],
    [
      "य",
      "द"
    ],
    [
      "वि",
      "शे"
    ],
    [
      "बृ",
      "ह"
    ],
    [
      "वा",
      "दि"
    ],
    [
      "रथः",
      "</M>"
    ],
    [
      "ग",
      "त्वा</M>"
    ],
    [
      "कु",
      "श"
    ],
    [
      "के",
      "श"
    ],
    [
      "ग",
      "ति"
    ],
    [
      "नरा",
      "धि"
    ],
    [
      "ल",
      "क्ष"
    ],
    [
      "सा",
      "त्य"
    ],
    [
      "द्वि",
      "ज"
    ],
    [
      "नि",
      "श्</M>"
    ],
    [
      "नि",
      "स्</M>"
    ],
    [
      "ग",
      "मि"
    ],
    [
      "णा",
      "म्</M>"
    ],
    [
      "के",
      "न</M>"
    ],
    [
      "इ",
      "त्यु"
    ],
    [
      "उ",
      "प"
    ],
    [
      "धृ",
      "ष्ट"
    ],
    [
      "म",
      "भि"
    ],
    [
      "य",
      "श"
    ],
    [
      "गे",
      "न</M>"
    ],
    [
      "न",
      "ग"
    ],
    [
      "भुः",
      "</M>"
    ],
    [
      "र",
      "स्य</M>"
    ],
    [
      "य",
      "ज्ञ"
    ],
    [
      "मि",
      "ति</M>"
    ],
    [
      "मु",
      "पा"
    ],
    [
      "क",
      "त्</M>"
    ],
    [
      "वि",
      "ना"
    ],
    [
      "रे",
      "ण</M>"
    ],
    [
      "हे",
      "</M>"
    ],
    [
      "उ",
      "त्</M>"
    ],
    [
      "य",
      "त</M>"
    ],
    [
      "विशा",
      "म्पते</M>"
    ],
    [
      "शृणु",
      "</M>"
    ],
    [
      "सां",
      "</M>"
    ],
    [
      "प्र",
      "सा"
    ],
    [
      "स",
      "ना"
    ],
    [
      "त",
      "श्च</M>"
    ],
    [
      "पि",
      "तृ"
    ],
    [
      "कर्म",
      "णा</M>"
    ],
    [
      "ग",
      "म्य</M>"
    ],
    [
      "सा",
      "धु"
    ],
    [
      "वा",
      "ह"
    ],
    [
      "शि",
      "ख"
    ],
    [
      "स",
      "त</M>"
    ],
    [
      "र",
      "पि</M>"
    ],
    [
      "सर्व",
      "शः</M>"
    ],
    [
      "ली",
      "</M>"
    ],
    [
      "स्थि",
      "तः</M>"
    ],
    [
      "ना",
      "र"
    ],
    [
      "मौ",
      "</M>"
    ],
    [
      "षः",
      "</M>"
    ],
    [
      "द",
      "दर्श</M>"
    ],
    [
      "वा",
      "यु"
    ],
    [
      "क",
      "र"
    ],
    [
      "सु",
      "हृ"
    ],
    [
      "क्रो",
      "ध"
    ],
    [
      "भग",
      "वान्</M>"
    ],
    [
      "धाः",
      "</M>"
    ],
    [
      "बभू",
      "व</M>"
    ],
    [
      "ना",
      "ग"
    ],
    [
      "ह",
      "त्वा</M>"
    ]
  ],
  "token2id": {
    "<DANDA>": 0,
    "<DANDA2>": 1,
    "</M>": 2,
    "<PAD>": 3,
    "<UNK>": 4,
    "<DANDA></M>": 5,
    "<DANDA2></M>": 6,
    "वि": 7,
    "च</M>": 8,
    "म": 9,
    "न</M>": 10,
    "र": 11,
    "अ": 12,
    "त": 13,
    "प्र": 14,
    "व": 15,
    "स": 16,
    "प": 17,
    "नि": 18,
    "य": 19,
    "ग": 20,
    "द": 21,
    "त्</M>": 22,
    "श": 23,
    "ते</M>": 24,
    "मा": 25,
    "ह": 26,
    "न": 27,
    "क": 28,
    "न्</M>": 29,
    "तः</M>": 30,
    "श्च</M>": 31,
    "तं</M>": 32,
    "ता": 33,
    "सु": 34,
    "वा": 35,
    "ना": 36,
    "पा": 37,
    "या": 38,
    "स</M>": 39,
    "सन्</M>": 40,
    "महा": 41,
    "द्</M>": 42,
    "ल": 43,
    "म्</M>": 44,
    "ता</M>": 45,
    "ज": 46,
    "ति</M>": 47,
    "सा": 48,
    "दि": 49,
    "मु": 50,
    "भि": 51,
    "चा": 52,
    "ऽ": 53,
    "व</M>": 54,
    "च": 55,
    "यं</M>": 56,
    "भ": 57,
    "त</M>": 58,
    "यु": 59,
    "य</M>": 60,
    "ति": 61,
    "स्य</M>": 62,
    "तु</M>": 63,
    "तो</M>": 64,
    "रा": 65,
    "का": 66,
    "ध": 67,
    "प्रा": 68,
    "भू": 69,
    "कु": 70,
    "हि</M>": 71,
    "मि": 72,
    "क्ष": 73,
    "उवाच</M>": 74,
    "यो": 75,
    "रु": 76,
    "जा": 77,
    "दा": 78,
    "ष": 79,
    "शा": 80,
    "तम्</M>": 81,
    "तु": 82,
    "चि": 83,
    "ण": 84,
    "वे": 85,
    "धा": 86,
    "दु": 87,
    "आ": 88,
    "नं</M>": 89,
    "नि</M>": 90,
    "शि": 91,
    "णा": 92,
    "शु": 93,
    "धि": 94,
    "तां</M>": 95,
    "भा": 96,
    "ताः</M>": 97,
    "नः</M>": 98,
    "षु</M>": 99,
    "सा</M>": 100,
    "रि": 101,
    "नां</M>": 102,
    "वृ": 103,
    "दृ": 104,
    "परि": 105,
    "हि": 106,
    "मे": 107,
    "न्ति</M>": 108,
    "ला": 109,
    "मे</M>": 110,
    "हा": 111,
    "गा": 112,
    "या</M>": 113,
    "पु": 114,
    "यः</M>": 115,
    "ह</M>": 116,
    "नु": 117,
    "समा": 118,
    "सि</M>": 119,
    "इ": 120,
    "वा</M>": 121,
    "दे": 122,
    "णि</M>": 123,
    "व्य": 124,
    "यत्</M>": 125,
    "वी": 126,
    "छ": 127,
    "ख": 128,
    "दी": 129,
    "सङ्</M>": 130,
    "ए": 131,
    "दं</M>": 132,
    "सर्व": 133,
    "स्तु</M>": 134,
    "ज्ञा": 135,
    "णां</M>": 136,
    "वै</M>": 137,
    "तथा</M>": 138,
    "ती": 139,
    "ब": 140,
    "ण</M>": 141,
    "कृ": 142,
    "व्या": 143,
    "तस्य</M>": 144,
    "जि": 145,
    "हं</M>": 146,
    "तत्</M>": 147,
    "ततः</M>": 148,
    "रं</M>": 149,
    "धर्म": 150,
    "पाण्ड": 151,
    "कि": 152,
    "स्व": 153,
    "ये</M>": 154,
    "वान्</M>": 155,
    "प्रति": 156,
    "यो</M>": 157,
    "त्व": 158,
    "मृ": 159,
    "णं</M>": 160,
    "यथा</M>": 161,
    "सी": 162,
    "पि": 163,
    "सू": 164,
    "भिः</M>": 165,
    "त्य": 166,
    "गु": 167,
    "वः</M>": 168,
    "स्या": 169,
    "त्वा</M>": 170,
    "रो": 171,
    "नृ": 172,
    "ततो</M>": 173,
    "णः</M>": 174,
    "से": 175,
    "पि</M>": 176,
    "राजन्</M>": 177,
    "बा": 178,
    "राज": 179,
    "षि": 180,
    "त्र": 181,
    "त्वं</M>": 182,
    "सम": 183,
    "वं</M>": 184,
    "नी": 185,
    "तान्</M>": 186,
    "क्षि": 187,
    "पू": 188,
    "ना</M>": 189,
    "दृष्ट्वा</M>": 190,
    "तदा</M>": 191,
    "ने": 192,
    "हृ": 193,
    "ष्ट": 194,
    "उ": 195,
    "लि": 196,
    "त्य</M>": 197,
    "गत्</M>": 198,
    "तत्र</M>": 199,
    "स्त</M>": 200,
    "नम्</M>": 201,
    "दु</M>": 202,
    "भी": 203,
    "त्र</M>": 204,
    "चैव</M>": 205,
    "के": 206,
    "राक्ष": 207,
    "सर्वे</M>": 208,
    "दुश्</M>": 209,
    "दुस्</M>": 210,
    "ङ्ग": 211,
    "सञ्</M>": 212,
    "श्चा": 213,
    "गृ": 214,
    "रः</M>": 215,
    "यि": 216,
    "ते": 217,
    "सं": 218,
    "खा": 219,
    "वै": 220,
    "की": 221,
    "भृ": 222,
    "यथा": 223,
    "र्थ": 224,
    "राजा</M>": 225,
    "तौ</M>": 226,
    "ब्राह्म": 227,
    "कं</M>": 228,
    "स्था": 229,
    "म</M>": 230,
    "वाच</M>": 231,
    "यम्</M>": 232,
    "प</M>": 233,
    "ब्रवीत्</M>": 234,
    "युद्</M>": 235,
    "तेन</M>": 236,
    "मम</M>": 237,
    "स्ते</M>": 238,
    "शी": 239,
    "भु": 240,
    "मो": 241,
    "थ</M>": 242,
    "त्रि": 243,
    "शो": 244,
    "न्य": 245,
    "त्रा": 246,
    "लं</M>": 247,
    "स्थि": 248,
    "मह": 249,
    "प्रि": 250,
    "स्तथा</M>": 251,
    "र</M>": 252,
    "पर": 253,
    "मू": 254,
    "शं</M>": 255,
    "ग्र": 256,
    "णि": 257,
    "तद्</M>": 258,
    "शू": 259,
    "सह</M>": 260,
    "न्द": 261,
    "सः</M>": 262,
    "को": 263,
    "श्रु": 264,
    "द्य</M>": 265,
    "वृत्</M>": 266,
    "द</M>": 267,
    "कुरु": 268,
    "ने</M>": 269,
    "षा": 270,
    "द्र": 271,
    "श्चैव</M>": 272,
    "बुद्</M>": 273,
    "समु": 274,
    "भारत</M>": 275,
    "ये": 276,
    "घ": 277,
    "नो</M>": 278,
    "यामास</M>": 279,
    "भ्य": 280,
    "सत्</M>": 281,
    "मि</M>": 282,
    "न्ते</M>": 283,
    "ताम्</M>": 284,
    "मां</M>": 285,
    "लो": 286,
    "त्म": 287,
    "पे": 288,
    "सै": 289,
    "तव</M>": 290,
    "णा</M>": 291,
    "गो": 292,
    "पुनः</M>": 293,
    "सौ": 294,
    "रे</M>": 295,
    "रे": 296,
    "बहु": 297,
    "व्र": 298,
    "मया</M>": 299,
    "भ्रा": 300,
    "यन्</M>": 301,
    "मान्</M>": 302,
    "न्त": 303,
    "पति": 304,
    "घो": 305,
    "तो": 306,
    "सृ": 307,
    "ही": 308,
    "तै": 309,
    "धी": 310,
    "नै": 311,
    "वत्</M>": 312,
    "परा": 313,
    "किं</M>": 314,
    "क्रुद्</M>": 315,
    "ण्ड": 316,
    "रणे</M>": 317,
    "कः</M>": 318,
    "धं</M>": 319,
    "न्या": 320,
    "से</M>": 321,
    "थ": 322,
    "ब्रह्म": 323,
    "घा": 324,
    "पृ": 325,
    "देव": 326,
    "णम्</M>": 327,
    "चे": 328,
    "षे": 329,
    "श्रुत्वा</M>": 330,
    "स्त": 331,
    "मनु": 332,
    "रो</M>": 333,
    "सह": 334,
    "न्तं</M>": 335,
    "क्त": 336,
    "शः</M>": 337,
    "तानि</M>": 338,
    "तत": 339,
    "र्थं</M>": 340,
    "प्रे": 341,
    "त्मा</M>": 342,
    "हु": 343,
    "चित्</M>": 344,
    "न्त</M>": 345,
    "क्तं</M>": 346,
    "री": 347,
    "ख्या": 348,
    "श्व": 349,
    "सोऽ": 350,
    "हे": 351,
    "खि": 352,
    "यते</M>": 353,
    "तोऽ": 354,
    "ष्य": 355,
    "नो": 356,
    "मा</M>": 357,
    "वो</M>": 358,
    "चै": 359,
    "दै": 360,
    "तप": 361,
    "भव": 362,
    "र्जु": 363,
    "राव": 364,
    "बल": 365,
    "श्चि": 366,
    "ऋ": 367,
    "शर": 368,
    "चो": 369,
    "तम": 370,
    "प्री": 371,
    "वन्</M>": 372,
    "कृत": 373,
    "रथ": 374,
    "ष</M>": 375,
    "धे</M>": 376,
    "लोक": 377,
    "ह्य": 378,
    "नम": 379,
    "कृत्वा</M>": 380,
    "सि": 381,
    "क्त्वा</M>": 382,
    "था": 383,
    "दर्श": 384,
    "एवं</M>": 385,
    "जय</M>": 386,
    "खं</M>": 387,
    "हू": 388,
    "ध्या": 389,
    "मन": 390,
    "यां</M>": 391,
    "दत्</M>": 392,
    "प्य": 393,
    "तैः</M>": 394,
    "णो</M>": 395,
    "स्य": 396,
    "गि": 397,
    "शे": 398,
    "जे": 399,
    "क्षे": 400,
    "श्च": 401,
    "जी": 402,
    "कथं</M>": 403,
    "दुर्यो": 404,
    "वे</M>": 405,
    "महाराज</M>": 406,
    "यदि</M>": 407,
    "पी": 408,
    "वो": 409,
    "ङ्</M>": 410,
    "धा</M>": 411,
    "रा</M>": 412,
    "क्षु": 413,
    "चापि</M>": 414,
    "क्र": 415,
    "फ": 416,
    "युधिष्ठि": 417,
    "इति</M>": 418,
    "शास": 419,
    "स्तदा</M>": 420,
    "धर्मा": 421,
    "नी</M>": 422,
    "स्ता": 423,
    "राघ": 424,
    "ब्रवी": 425,
    "तृ": 426,
    "श्रि": 427,
    "ध्य": 428,
    "छे": 429,
    "श</M>": 430,
    "तिष्ठ": 431,
    "धे": 432,
    "को</M>": 433,
    "द्यु": 434,
    "धनु": 435,
    "लक्ष्म": 436,
    "निह": 437,
    "मान": 438,
    "भो": 439,
    "सं</M>": 440,
    "ञ्ज": 441,
    "वैशम्पायन</M>": 442,
    "कथ": 443,
    "सो": 444,
    "र्ष": 445,
    "पुत्र": 446,
    "पश्य": 447,
    "भीमसे": 448,
    "ष्टा": 449,
    "तुं</M>": 450,
    "स्त्रि": 451,
    "षां</M>": 452,
    "र्वि": 453,
    "सुख": 454,
    "मं</M>": 455,
    "णै": 456,
    "क्षा": 457,
    "त्वया</M>": 458,
    "राजा": 459,
    "इव</M>": 460,
    "सर्वं</M>": 461,
    "राम": 462,
    "धो</M>": 463,
    "सम्</M>": 464,
    "ले": 465,
    "स्मा": 466,
    "व्यं</M>": 467,
    "पर्व": 468,
    "मित्</M>": 469,
    "द्वि": 470,
    "वर्त</M>": 471,
    "वाः</M>": 472,
    "श्र": 473,
    "समरे</M>": 474,
    "ष्यामि</M>": 475,
    "भग": 476,
    "तमा": 477,
    "ल</M>": 478,
    "एवमु": 479,
    "न्ध": 480,
    "शन्</M>": 481,
    "जन": 482,
    "तेषां</M>": 483,
    "कर्म": 484,
    "गन्ध": 485,
    "पुरुष": 486,
    "हो</M>": 487,
    "ग्नि": 488,
    "त्यु": 489,
    "त्या": 490,
    "न्न": 491,
    "त्ये": 492,
    "ती</M>": 493,
    "पार्थि": 494,
    "न्द्र": 495,
    "कार": 496,
    "तिः</M>": 497,
    "यत्र</M>": 498,
    "नर": 499,
    "भ्यां</M>": 500,
    "स्मि": 501,
    "कम्</M>": 502,
    "नाम</M>": 503,
    "पुर": 504,
    "ङ्गा": 505,
    "तरं</M>": 506,
    "भे": 507,
    "प्त": 508,
    "मही": 509,
    "त्तम</M>": 510,
    "षा</M>": 511,
    "१": 512,
    "र्य": 513,
    "त्रं</M>": 514,
    "विवि": 515,
    "ले</M>": 516,
    "स्ति</M>": 517,
    "स्व</M>": 518,
    "याः</M>": 519,
    "णे": 520,
    "खे": 521,
    "तद": 522,
    "पः</M>": 523,
    "त्वां</M>": 524,
    "यात्</M>": 525,
    "कर्म</M>": 526,
    "त्वा": 527,
    "हर": 528,
    "सत्य": 529,
    "वर्त": 530,
    "सदा</M>": 531,
    "तमम्</M>": 532,
    "प्रजा": 533,
    "तेऽ": 534,
    "क्ष्य</M>": 535,
    "छा": 536,
    "गतः</M>": 537,
    "राः</M>": 538,
    "थि": 539,
    "ध</M>": 540,
    "पुरा</M>": 541,
    "र्म": 542,
    "यम": 543,
    "वृद्</M>": 544,
    "काम": 545,
    "णी": 546,
    "ण्य": 547,
    "वम्</M>": 548,
    "शै": 549,
    "रक्ष": 550,
    "ञ्च": 551,
    "सहि": 552,
    "काल": 553,
    "महे": 554,
    "ततोऽ": 555,
    "तेज": 556,
    "कै": 557,
    "ट": 558,
    "तम</M>": 559,
    "णो": 560,
    "ष्यति</M>": 561,
    "जः</M>": 562,
    "भवत्</M>": 563,
    "शत": 564,
    "सिन्</M>": 565,
    "द्रौ": 566,
    "छि": 567,
    "श्य": 568,
    "ज्य</M>": 569,
    "ध्व": 570,
    "स्म": 571,
    "भो</M>": 572,
    "पौ": 573,
    "यस्य</M>": 574,
    "धः</M>": 575,
    "वर": 576,
    "नित्यं</M>": 577,
    "येन</M>": 578,
    "म्य": 579,
    "सिद्</M>": 580,
    "क्षत्रि": 581,
    "वार": 582,
    "बु": 583,
    "धृतरा": 584,
    "न्नि": 585,
    "दम": 586,
    "क्रु": 587,
    "रौ": 588,
    "दो": 589,
    "युधिष्ठिर</M>": 590,
    "र्ण": 591,
    "ला</M>": 592,
    "स्मि</M>": 593,
    "द्या": 594,
    "पिता": 595,
    "कौर": 596,
    "द्वा": 597,
    "न्द्रि": 598,
    "का</M>": 599,
    "तानां</M>": 600,
    "शो</M>": 601,
    "वद": 602,
    "रम्</M>": 603,
    "प्रति</M>": 604,
    "णाः</M>": 605,
    "दः</M>": 606,
    "चतु": 607,
    "चर": 608,
    "यान्</M>": 609,
    "वचनं</M>": 610,
    "र्ग": 611,
    "सु</M>": 612,
    "स्त्र": 613,
    "ऽऽ": 614,
    "क्तः</M>": 615,
    "रू": 616,
    "नेन</M>": 617,
    "किञ्</M>": 618,
    "तथा": 619,
    "मेव</M>": 620,
    "कृतं</M>": 621,
    "द्य": 622,
    "पत": 623,
    "र्थे": 624,
    "साद्य</M>": 625,
    "मै": 626,
    "सर्वे": 627,
    "त्स": 628,
    "स्म</M>": 629,
    "श्चापि</M>": 630,
    "एव</M>": 631,
    "थो": 632,
    "मत्</M>": 633,
    "ष्ठ": 634,
    "वच": 635,
    "नू": 636,
    "स्तस्य</M>": 637,
    "अभि": 638,
    "दश": 639,
    "कृता": 640,
    "योऽ": 641,
    "विद्</M>": 642,
    "शत्रु": 643,
    "यौ</M>": 644,
    "षं</M>": 645,
    "यद्</M>": 646,
    "वचः</M>": 647,
    "तुः</M>": 648,
    "णान्</M>": 649,
    "शे</M>": 650,
    "रथा": 651,
    "ड": 652,
    "दू": 653,
    "क्तो</M>": 654,
    "प्रत्य": 655,
    "र्ह": 656,
    "वेद": 657,
    "पो": 658,
    "द्यते</M>": 659,
    "स्वि": 660,
    "तस्या": 661,
    "थे": 662,
    "ञ्</M>": 663,
    "ष्टं</M>": 664,
    "जीवि": 665,
    "लोके</M>": 666,
    "दक्षि": 667,
    "यै": 668,
    "विष": 669,
    "काः</M>": 670,
    "पञ्च": 671,
    "ऽपि</M>": 672,
    "भौ</M>": 673,
    "भवेत्</M>": 674,
    "तर": 675,
    "सर्वा": 676,
    "महत्</M>": 677,
    "यमा": 678,
    "तू": 679,
    "क्ता</M>": 680,
    "रान्</M>": 681,
    "तथैव</M>": 682,
    "तेषु</M>": 683,
    "बि": 684,
    "न्तो</M>": 685,
    "के</M>": 686,
    "क</M>": 687,
    "र्या": 688,
    "णे</M>": 689,
    "र्ध": 690,
    "धनञ्</M>": 691,
    "न्यं</M>": 692,
    "श्री": 693,
    "अथ</M>": 694,
    "लम्</M>": 695,
    "सर्वभू": 696,
    "क्रि": 697,
    "सहस्र": 698,
    "धि</M>": 699,
    "षी": 700,
    "मः</M>": 701,
    "चिन्त": 702,
    "शरैः</M>": 703,
    "परम": 704,
    "तस्मा": 705,
    "ब्रु": 706,
    "कर्ण": 707,
    "तस्मिन्</M>": 708,
    "वाक्यं</M>": 709,
    "स्तव</M>": 710,
    "परं</M>": 711,
    "र्व": 712,
    "ष्टि": 713,
    "भीष्म</M>": 714,
    "स्ती": 715,
    "विनि": 716,
    "रै": 717,
    "ताप": 718,
    "शरी": 719,
    "यि</M>": 720,
    "ष्टा</M>": 721,
    "पाण्डु": 722,
    "न्न</M>": 723,
    "वित्</M>": 724,
    "क्ता": 725,
    "छति</M>": 726,
    "ब्रू": 727,
    "कौ": 728,
    "लः</M>": 729,
    "स्</M>": 730,
    "स्तं</M>": 731,
    "स्त्व": 732,
    "डि": 733,
    "मी": 734,
    "दाय</M>": 735,
    "चन</M>": 736,
    "ग्रा": 737,
    "हा</M>": 738,
    "वीर्य": 739,
    "मिव</M>": 740,
    "वासु": 741,
    "श्</M>": 742,
    "समी": 743,
    "ज्ञ": 744,
    "च्यते</M>": 745,
    "धर्म</M>": 746,
    "धू": 747,
    "रम": 748,
    "हरि": 749,
    "णैः</M>": 750,
    "धृ": 751,
    "दौ</M>": 752,
    "कृत्</M>": 753,
    "न्ये</M>": 754,
    "वने</M>": 755,
    "शोक": 756,
    "स्त्वं</M>": 757,
    "र्था": 758,
    "एष</M>": 759,
    "र्ति": 760,
    "तमः</M>": 761,
    "देव</M>": 762,
    "धै": 763,
    "दो</M>": 764,
    "मानु": 765,
    "न्ना": 766,
    "प्रवि": 767,
    "भविष्यति</M>": 768,
    "योः</M>": 769,
    "यू": 770,
    "पश्या": 771,
    "पुत्रा": 772,
    "बला": 773,
    "काले</M>": 774,
    "जं</M>": 775,
    "प्य</M>": 776,
    "श्य</M>": 777,
    "साग": 778,
    "वसु": 779,
    "सर्वान्</M>": 780,
    "स्ये": 781,
    "भरतर्षभ</M>": 782,
    "कू": 783,
    "बलं</M>": 784,
    "वस": 785,
    "ष्टो": 786,
    "मर्हसि</M>": 787,
    "र्वा": 788,
    "सुग्री": 789,
    "करो": 790,
    "पृथिवी": 791,
    "श्रे": 792,
    "णी</M>": 793,
    "ढ": 794,
    "दुरा": 795,
    "रिव</M>": 796,
    "पतिः</M>": 797,
    "नाम": 798,
    "हम्</M>": 799,
    "शृ": 800,
    "भे</M>": 801,
    "वि</M>": 802,
    "विधि": 803,
    "भीम": 804,
    "श्रो": 805,
    "प्राप्य</M>": 806,
    "यित्वा</M>": 807,
    "ष्ण": 808,
    "प्तं</M>": 809,
    "न्ती": 810,
    "षो": 811,
    "युगे</M>": 812,
    "सहस्रा": 813,
    "सौ</M>": 814,
    "स्तु": 815,
    "त्मनः</M>": 816,
    "द्रोण": 817,
    "नाम्</M>": 818,
    "म्ब": 819,
    "येत्</M>": 820,
    "राम</M>": 821,
    "द्रु": 822,
    "राजेन्द्र</M>": 823,
    "सहा": 824,
    "गी": 825,
    "छ</M>": 826,
    "कौन्ते": 827,
    "मधु": 828,
    "नैव</M>": 829,
    "कान्</M>": 830,
    "धन": 831,
    "शम्</M>": 832,
    "महात्मनः</M>": 833,
    "वु": 834,
    "नौ</M>": 835,
    "पाप": 836,
    "र्मु": 837,
    "स्मृ": 838,
    "श्रू": 839,
    "पुरा": 840,
    "ष्व": 841,
    "जगाम</M>": 842,
    "तस्मात्</M>": 843,
    "क्</M>": 844,
    "ज्ञे": 845,
    "युधि</M>": 846,
    "सम्प्र": 847,
    "वन": 848,
    "श्रेष्ठ</M>": 849,
    "थै": 850,
    "न्तः</M>": 851,
    "जो": 852,
    "विदु": 853,
    "पूर्व": 854,
    "त्रै": 855,
    "मुनि": 856,
    "छामि</M>": 857,
    "नीम्</M>": 858,
    "र्णं</M>": 859,
    "स्त्री": 860,
    "वान": 861,
    "र्द": 862,
    "वास": 863,
    "नस्य</M>": 864,
    "रूप": 865,
    "धनं</M>": 866,
    "नारा": 867,
    "फलं</M>": 868,
    "तपो": 869,
    "पृत्</M>": 870,
    "चेत": 871,
    "दारु": 872,
    "पाल": 873,
    "करि": 874,
    "जय": 875,
    "ण्डि": 876,
    "र्य</M>": 877,
    "ध्ये</M>": 878,
    "दा</M>": 879,
    "नु</M>": 880,
    "गुरु": 881,
    "तात</M>": 882,
    "गं</M>": 883,
    "अनु": 884,
    "त्रा</M>": 885,
    "धार": 886,
    "पुत्रो</M>": 887,
    "मपि</M>": 888,
    "महाबलः</M>": 889,
    "स्वा": 890,
    "ज</M>": 891,
    "बाहु": 892,
    "ल्या": 893,
    "न्ती</M>": 894,
    "भाष": 895,
    "ल्प": 896,
    "शयः</M>": 897,
    "प्नु": 898,
    "स्मिन्</M>": 899,
    "र्षि": 900,
    "हः</M>": 901,
    "भ्या": 902,
    "णस्य</M>": 903,
    "लो</M>": 904,
    "द्भु": 905,
    "गृह्य</M>": 906,
    "नाना": 907,
    "प्रत्यु": 908,
    "भ्यो</M>": 909,
    "नाः</M>": 910,
    "न्ता": 911,
    "पूर्वं</M>": 912,
    "लु": 913,
    "पं</M>": 914,
    "प्रभा": 915,
    "र्दि": 916,
    "क्षी": 917,
    "णेन</M>": 918,
    "यद": 919,
    "विशे": 920,
    "बृह": 921,
    "कुल": 922,
    "वादि": 923,
    "र्जि": 924,
    "पर्य": 925,
    "रथः</M>": 926,
    "ज्व": 927,
    "त्या</M>": 928,
    "भार": 929,
    "कुश": 930,
    "गत्वा</M>": 931,
    "ली": 932,
    "केश": 933,
    "सो</M>": 934,
    "यदा</M>": 935,
    "वद्</M>": 936,
    "ष्या": 937,
    "दान": 938,
    "नराधि": 939,
    "लक्ष": 940,
    "व्य</M>": 941,
    "गति": 942,
    "पुत्रं</M>": 943,
    "तदा": 944,
    "वर्ष": 945,
    "सात्य": 946,
    "दम्</M>": 947,
    "ची": 948,
    "द्विज": 949,
    "निश्</M>": 950,
    "निस्</M>": 951,
    "रथे": 952,
    "णाम्</M>": 953,
    "द्व": 954,
    "केन</M>": 955,
    "पुरो": 956,
    "इत्यु": 957,
    "उप": 958,
    "स्पृ": 959,
    "णौ": 960,
    "धृष्ट": 961,
    "मभि": 962,
    "यश": 963,
    "पञ्चा": 964,
    "ष्प": 965,
    "नग": 966,
    "भुः</M>": 967,
    "रथं</M>": 968,
    "यज्ञ": 969,
    "र्थ</M>": 970,
    "स्त्रा": 971,
    "मिति</M>": 972,
    "मुपा": 973,
    "म्य</M>": 974,
    "कत्</M>": 975,
    "गमि": 976,
    "प्रो": 977,
    "महाबा": 978,
    "यश्च</M>": 979,
    "विना": 980,
    "उत्</M>": 981,
    "गौ": 982,
    "यत</M>": 983,
    "विशाम्पते</M>": 984,
    "शृणु</M>": 985,
    "सां</M>": 986,
    "प्रसा": 987,
    "२": 988,
    "स्ति": 989,
    "स्थ": 990,
    "वनं</M>": 991,
    "तश्च</M>": 992,
    "र्दू": 993,
    "वरा": 994,
    "विशा": 995,
    "पितृ": 996,
    "त्रे</M>": 997,
    "प्स": 998,
    "कर्मणा</M>": 999,
    "गेन</M>": 1000,
    "त्था": 1001,
    "धर्मे": 1002,
    "साधु": 1003,
    "गम्य</M>": 1004,
    "धार्तरा": 1005,
    "पश्य</M>": 1006,
    "वाह": 1007,
    "ष्ठा": 1008,
    "त्मानं</M>": 1009,
    "शिख": 1010,
    "सत</M>": 1011,
    "रपि</M>": 1012,
    "सर्वशः</M>": 1013,
    "स्वर्ग": 1014,
    "रस्य</M>": 1015,
    "ली</M>": 1016,
    "शरै": 1017,
    "श्वा": 1018,
    "स्थितः</M>": 1019,
    "नार": 1020,
    "मौ</M>": 1021,
    "षः</M>": 1022,
    "ददर्श</M>": 1023,
    "हे</M>": 1024,
    "वायु": 1025,
    "मो</M>": 1026,
    "कर": 1027,
    "लोका": 1028,
    "सुहृ": 1029,
    "क्रोध": 1030,
    "द्रं</M>": 1031,
    "पिता</M>": 1032,
    "ष्म": 1033,
    "त्सृ": 1034,
    "भगवान्</M>": 1035,
    "तत्रा": 1036,
    "धाः</M>": 1037,
    "वरः</M>": 1038,
    "एव": 1039,
    "बभूव</M>": 1040,
    "नाग": 1041,
    "रेण</M>": 1042,
    "हत्वा</M>": 1043,
    "भ्यः</M>": 1044,
    "क्रा": 1045,
    "जयः</M>": 1046,
    "म्भ": 1047,
    "भं": 1048,
    "सना": 1049,
    "क्ष्यामि</M>": 1050,
    "हो": 1051,
    "तिं</M>": 1052,
    "ह्ये": 1053,
    "क्षं</M>": 1054,
    "मनो": 1055,
    "चु": 1056,
    "कर्मा": 1057,
    "समे": 1058,
    "च्छ": 1059,
    "परे</M>": 1060,
    "समन्त</M>": 1061,
    "प्रमा": 1062,
    "रथि": 1063,
    "भवान्</M>": 1064,
    "प्ल": 1065,
    "धौ": 1066,
    "बो": 1067,
    "वस्य</M>": 1068,
    "सुखं</M>": 1069,
    "स्र": 1070,
    "तमु": 1071,
    "स्मै": 1072,
    "माः": 1073,
    "ण्डी": 1074,
    "दां": 1075,
    "था</M>": 1076,
    "भ्य</M>": 1077,
    "श्वरः</M>": 1078,
    "समन्वि": 1079,
    "नात्</M>": 1080,
    "न्यो": 1081,
    "न्नं</M>": 1082,
    "त्प": 1083,
    "द्ध": 1084,
    "राज्यं</M>": 1085,
    "सम्प": 1086,
    "प्रमु": 1087,
    "रामो</M>": 1088,
    "प्नो": 1089,
    "श्वे": 1090,
    "७": 1091,
    "क्षो": 1092,
    "लोके": 1093,
    "तेजा": 1094,
    "न्द्र</M>": 1095,
    "परी": 1096,
    "बलम्</M>": 1097,
    "रैः": 1098,
    "र्महा": 1099,
    "परमं</M>": 1100,
    "रक्षि": 1101,
    "कर्त": 1102,
    "श्यते</M>": 1103,
    "ध्रु": 1104,
    "वासि": 1105,
    "न्दि": 1106,
    "न्द्रा": 1107,
    "र्घ": 1108,
    "वसि": 1109,
    "स्यै": 1110,
    "ऊ": 1111,
    "र्थो": 1112,
    "४": 1113,
    "वौ": 1114,
    "सर्व</M>": 1115,
    "र्ज": 1116,
    "ल्य": 1117,
    "वैः": 1118,
    "ष्ट्र</M>": 1119,
    "ञ्चा": 1120,
    "प्ता": 1121,
    "प्ता</M>": 1122,
    "ष्टः": 1123,
    "भर": 1124,
    "वरं</M>": 1125,
    "चरि": 1126,
    "नमा": 1127,
    "रामं</M>": 1128,
    "दश</M>": 1129,
    "भ्र": 1130,
    "वानां</M>": 1131,
    "त्वे": 1132,
    "द्रा": 1133,
    "षु": 1134,
    "देवं</M>": 1135,
    "र्नि": 1136,
    "न्वि": 1137,
    "ख्ये</M>": 1138,
    "द्विजा": 1139,
    "न्ति": 1140,
    "भरत": 1141,
    "गः": 1142,
    "तमि": 1143,
    "रूपं</M>": 1144,
    "क्रे</M>": 1145,
    "क्रो": 1146,
    "शौ": 1147,
    "कैः": 1148,
    "टि": 1149,
    "ह्या": 1150,
    "३": 1151,
    "क्यम": 1152,
    "गाः": 1153,
    "देवे": 1154,
    "सत्यं</M>": 1155,
    "ण्यं</M>": 1156,
    "रथाः": 1157,
    "लै": 1158,
    "सम्य": 1159,
    "ङ्क": 1160,
    "रूपा": 1161,
    "ई": 1162,
    "क्ति": 1163,
    "रामः</M>": 1164,
    "धु": 1165,
    "वर्ण": 1166,
    "श्रा": 1167,
    "त्रे": 1168,
    "जु": 1169,
    "न्ये": 1170,
    "मन्य": 1171,
    "वां": 1172,
    "५": 1173,
    "स्ना": 1174,
    "पते</M>": 1175,
    "र्भ": 1176,
    "धर्मं</M>": 1177,
    "श्चित्</M>": 1178,
    "ष्ट्या</M>": 1179,
    "ग्रामे</M>": 1180,
    "स्तान्</M>": 1181,
    "प्त</M>": 1182,
    "रथो": 1183,
    "री</M>": 1184,
    "मन्ये</M>": 1185,
    "टा": 1186,
    "युः": 1187,
    "ष्टे": 1188,
    "घु": 1189,
    "ह्व": 1190,
    "गे": 1191,
    "ग्मु": 1192,
    "ध्या</M>": 1193,
    "पत</M>": 1194,
    "हुः</M>": 1195,
    "सुखा": 1196,
    "महात्मना</M>": 1197,
    "लाः": 1198,
    "उपा": 1199,
    "महो": 1200,
    "र्प": 1201,
    "वना": 1202,
    "प्लु": 1203,
    "भै": 1204,
    "जना": 1205,
    "वर्ध": 1206,
    "ज्र": 1207,
    "शरा": 1208,
    "च्यु": 1209,
    "दाः": 1210,
    "राजो": 1211,
    "पुरुषो": 1212,
    "वर्ति": 1213,
    "साः": 1214,
    "कृतम्</M>": 1215,
    "न्मे</M>": 1216,
    "प्यु": 1217,
    "न्या</M>": 1218,
    "णु": 1219,
    "स्तू": 1220,
    "वारि": 1221,
    "छ्रु": 1222,
    "प्रं</M>": 1223,
    "यी": 1224,
    "नरे": 1225,
    "र्बा": 1226,
    "पै": 1227,
    "वाहि": 1228,
    "न्धु": 1229,
    "वर्षा": 1230,
    "है": 1231,
    "दि</M>": 1232,
    "पाः": 1233,
    "र्त": 1234,
    "न्व": 1235,
    "स्यात्</M>": 1236,
    "क्ष्य": 1237,
    "द्भि": 1238,
    "ज्ये": 1239,
    "धर्मो</M>": 1240,
    "प्तो</M>": 1241,
    "वन्ति</M>": 1242,
    "स्क": 1243,
    "कार्यं</M>": 1244,
    "न्ता</M>": 1245,
    "स्त्वया</M>": 1246,
    "म्बु": 1247,
    "स्तेन</M>": 1248,
    "मर्ह": 1249,
    "ल्गु": 1250,
    "धो": 1251,
    "सम्प्रा": 1252,
    "न्तु</M>": 1253,
    "शतं</M>": 1254,
    "पुत्र</M>": 1255,
    "नरः</M>": 1256,
    "बी": 1257,
    "कर्ण</M>": 1258,
    "त्मना</M>": 1259,
    "महं</M>": 1260,
    "रामे": 1261,
    "ह्य</M>": 1262,
    "पञ्च</M>": 1263,
    "भविष्य": 1264,
    "मन्त्र": 1265,
    "बलि": 1266,
    "त्क": 1267,
    "हर्ष": 1268,
    "कामं</M>": 1269,
    "दशा": 1270,
    "भवि": 1271,
    "ङ्ख": 1272,
    "ष्टु": 1273,
    "नागा": 1274,
    "पुरं</M>": 1275,
    "स्ने": 1276,
    "नमु": 1277,
    "महाबाहु": 1278,
    "६": 1279,
    "घ्र</M>": 1280,
    "न्ना</M>": 1281,
    "श्चै": 1282,
    "पुन": 1283,
    "भः": 1284,
    "र्वृ": 1285,
    "द्ग": 1286,
    "ङ्गि": 1287,
    "मन्यु": 1288,
    "श्वस": 1289,
    "ध्वा</M>": 1290,
    "र्न</M>": 1291,
    "स्त्रं</M>": 1292,
    "र्क": 1293,
    "मनः</M>": 1294,
    "देवा</M>": 1295,
    "परमा": 1296,
    "पुत्रः</M>": 1297,
    "लां": 1298,
    "न्म": 1299,
    "प्र</M>": 1300,
    "बभू": 1301,
    "ष्णा": 1302,
    "ष्ये</M>": 1303,
    "जनार्द": 1304,
    "८": 1305,
    "वस्थि": 1306,
    "न्तु": 1307,
    "ब्ध": 1308,
    "कर्ष": 1309,
    "काले": 1310,
    "धिः": 1311,
    "न्दु": 1312,
    "त्सु": 1313,
    "धर्मः</M>": 1314,
    "फा": 1315,
    "ग्री": 1316,
    "नैः": 1317,
    "सर्वा</M>": 1318,
    "जया": 1319,
    "त्सा": 1320,
    "वानु": 1321,
    "र्गा": 1322,
    "परम्</M>": 1323,
    "र्भि": 1324,
    "घ्रं</M>": 1325,
    "ण्डे": 1326,
    "र्वी": 1327,
    "वरु": 1328,
    "ष्ठि": 1329,
    "पुत्रस्य</M>": 1330,
    "ण्या": 1331,
    "खो": 1332,
    "डा": 1333,
    "धिं": 1334,
    "त्वि": 1335,
    "न्त्य": 1336,
    "राज्ञा": 1337,
    "स्वी": 1338,
    "वास</M>": 1339,
    "कारि": 1340,
    "तप</M>": 1341,
    "तमे": 1342,
    "देवी": 1343,
    "र्षभ</M>": 1344,
    "कुले</M>": 1345,
    "पत्</M>": 1346,
    "कालं</M>": 1347,
    "पुनरे": 1348,
    "म्प": 1349,
    "तपः</M>": 1350,
    "र्यु": 1351,
    "ष्ण</M>": 1352,
    "पृथि": 1353,
    "यशाः": 1354,
    "र्धं</M>": 1355,
    "व्यू": 1356,
    "कार्मु": 1357,
    "ज्या": 1358,
    "कार</M>": 1359,
    "महर्ष": 1360,
    "ष्ठं": 1361,
    "त्न": 1362,
    "विष्णु": 1363,
    "शत्</M>": 1364,
    "श्रेष्ठं": 1365,
    "च्य": 1366,
    "दानं</M>": 1367,
    "दुः": 1368,
    "क्तु": 1369,
    "प्स्य": 1370,
    "मन्त्रि": 1371,
    "भव</M>": 1372,
    "स्वे": 1373,
    "वनम्</M>": 1374,
    "स्तात</M>": 1375,
    "बले": 1376,
    "श्वस्य</M>": 1377,
    "क्री": 1378,
    "जौ": 1379,
    "द्वे": 1380,
    "न्तौ</M>": 1381,
    "प्रजाः": 1382,
    "०": 1383,
    "कृता</M>": 1384,
    "तदि": 1385,
    "ष्टाः": 1386,
    "९": 1387,
    "कर्तु": 1388,
    "देवो</M>": 1389,
    "न्तरं</M>": 1390,
    "श्म": 1391,
    "ष्व</M>": 1392,
    "स्त्य": 1393,
    "मानं</M>": 1394,
    "श्रम": 1395,
    "कर्णो</M>": 1396,
    "ज्ज": 1397,
    "स्तथा": 1398,
    "त्थि": 1399,
    "भाषि": 1400,
    "महे</M>": 1401,
    "स्यो": 1402,
    "जाः": 1403,
    "लोकं</M>": 1404,
    "न्महा": 1405,
    "कां": 1406,
    "धन</M>": 1407,
    "स्तै": 1408,
    "कृतः</M>": 1409,
    "ङ्गे": 1410,
    "त्पा": 1411,
    "न्ने": 1412,
    "र्णा": 1413,
    "क्रू": 1414,
    "धर्मे</M>": 1415,
    "यामा": 1416,
    "जनाः</M>": 1417,
    "यौ": 1418,
    "र्थः": 1419,
    "कर्णं</M>": 1420,
    "क्यं</M>": 1421,
    "भ्यु": 1422,
    "रमा": 1423,
    "रूपे": 1424,
    "स्कृत्य</M>": 1425,
    "धां": 1426,
    "श्या": 1427,
    "श्वर</M>": 1428,
    "क्रमः</M>": 1429,
    "क्लि": 1430,
    "द्र</M>": 1431,
    "ध्वं</M>": 1432,
    "वचो": 1433,
    "ष्ये": 1434,
    "पापं</M>": 1435,
    "व्या</M>": 1436,
    "ज्ञो": 1437,
    "ब्रह्म</M>": 1438,
    "भवद्</M>": 1439,
    "यमु": 1440,
    "दम</M>": 1441,
    "प्रम": 1442,
    "कुलं</M>": 1443,
    "क्रम्य</M>": 1444,
    "क्व</M>": 1445,
    "द्वै": 1446,
    "र्भू": 1447,
    "वर्णा": 1448,
    "द्धि": 1449,
    "महात्मा</M>": 1450,
    "ष्ट्र": 1451,
    "न्द्रस्य</M>": 1452,
    "पृथिवीं": 1453,
    "भीमं</M>": 1454,
    "विक्रमः</M>": 1455,
    "समुपा": 1456,
    "स्थं</M>": 1457,
    "तपाः": 1458,
    "प्तः</M>": 1459,
    "धना": 1460,
    "पर्या": 1461,
    "यैः": 1462,
    "ष्मं</M>": 1463,
    "कामा": 1464,
    "कृते</M>": 1465,
    "गै": 1466,
    "ण्डा": 1467,
    "धैः": 1468,
    "ज्ञः": 1469,
    "र्मा": 1470,
    "र्ल": 1471,
    "जनमे": 1472,
    "पापा": 1473,
    "प्ये": 1474,
    "चरे": 1475,
    "टो": 1476,
    "न्तुं</M>": 1477,
    "न्तरे</M>": 1478,
    "ङ्गं</M>": 1479,
    "देवाः</M>": 1480,
    "धनः</M>": 1481,
    "र्चि": 1482,
    "चं": 1483,
    "प्या": 1484,
    "ष्ट्रस्य</M>": 1485,
    "ष्ठे": 1486,
    "जै": 1487,
    "वसा": 1488,
    "स्परम्</M>": 1489,
    "क्ताः</M>": 1490,
    "तदु": 1491,
    "त्स्य": 1492,
    "र्मि": 1493,
    "ज्य": 1494,
    "कार्या": 1495,
    "क्ष्व</M>": 1496,
    "घ्र": 1497,
    "द्रोणं</M>": 1498,
    "ष्ट्रा": 1499,
    "समृ": 1500,
    "गैः": 1501,
    "दर्शि": 1502,
    "ष्टुं": 1503,
    "स्ते": 1504,
    "ल्यं</M>": 1505,
    "स्थे": 1506,
    "देवा": 1507,
    "माना": 1508,
    "ष्य</M>": 1509,
    "धनुः": 1510,
    "धनो</M>": 1511,
    "मुनिः": 1512,
    "समं</M>": 1513,
    "कृति": 1514,
    "क्र</M>": 1515,
    "क्ष्या": 1516,
    "न्यस्य</M>": 1517,
    "र्म</M>": 1518,
    "तमाः": 1519,
    "निः": 1520,
    "शता": 1521,
    "तत</M>": 1522,
    "तत्रै": 1523,
    "पराजि": 1524,
    "राज्ञो": 1525,
    "ढा": 1526,
    "विषा": 1527,
    "घ्न": 1528,
    "श्चतु": 1529,
    "व्यां</M>": 1530,
    "बली</M>": 1531,
    "श्चो": 1532,
    "द्रे</M>": 1533,
    "न्नः</M>": 1534,
    "स्वनः</M>": 1535,
    "ध्य</M>": 1536,
    "वन्तं</M>": 1537,
    "पुत्रान्</M>": 1538,
    "स्तथैव</M>": 1539,
    "द्विजो": 1540,
    "परे": 1541,
    "रां": 1542,
    "क्रोधा": 1543,
    "क्वचित्</M>": 1544,
    "न्म</M>": 1545,
    "भार्ग": 1546,
    "यदा": 1547,
    "वर</M>": 1548,
    "पुत्रेण</M>": 1549,
    "राज्ञः": 1550,
    "क्त्या</M>": 1551,
    "न्यु": 1552,
    "स्तत्र</M>": 1553,
    "थु": 1554,
    "वर्षे": 1555,
    "मनी": 1556,
    "प्ते</M>": 1557,
    "भीमो</M>": 1558,
    "करा": 1559,
    "जगा": 1560,
    "तीं": 1561,
    "दान्</M>": 1562,
    "द्म": 1563,
    "न्नो</M>": 1564,
    "गे</M>": 1565,
    "तमं</M>": 1566,
    "तेजो": 1567,
    "र्ता</M>": 1568,
    "र्बहु": 1569,
    "करः</M>": 1570,
    "त्रेण</M>": 1571,
    "न्द्रो</M>": 1572,
    "बलाः": 1573,
    "मह</M>": 1574,
    "लैः": 1575,
    "स्वं</M>": 1576,
    "क्रम</M>": 1577,
    "ज्यो": 1578,
    "न्यां</M>": 1579,
    "परु": 1580,
    "र्गु": 1581,
    "लिः": 1582,
    "लोकान्</M>": 1583,
    "वर्जि": 1584,
    "कथि": 1585,
    "व्यो</M>": 1586,
    "त्रो": 1587,
    "द्यत</M>": 1588,
    "रक्षो": 1589,
    "श्चे": 1590,
    "समन्ता": 1591,
    "स्तो": 1592,
    "पता": 1593,
    "मना": 1594,
    "र्वा</M>": 1595,
    "क्ले": 1596,
    "चुः": 1597,
    "त्वरि": 1598,
    "महः</M>": 1599,
    "तॄ": 1600,
    "भवन्ति</M>": 1601,
    "श्नु": 1602,
    "स्ता</M>": 1603,
    "वेदि": 1604,
    "शास्त्र": 1605,
    "ञ्छ": 1606,
    "तरः</M>": 1607,
    "भवे": 1608,
    "श्वास": 1609,
    "काला": 1610,
    "जयं</M>": 1611,
    "देवः</M>": 1612,
    "नरा": 1613,
    "स्तप": 1614,
    "खः": 1615,
    "ध्यते</M>": 1616,
    "द्धो</M>": 1617,
    "ध्ये": 1618,
    "प्रतिष्ठि": 1619,
    "कर्णः</M>": 1620,
    "चः": 1621,
    "त्रो</M>": 1622,
    "वासा": 1623,
    "कर्णस्य</M>": 1624,
    "छु": 1625,
    "त्री": 1626,
    "नर</M>": 1627,
    "राजे": 1628,
    "द्वी": 1629,
    "पुरुषा": 1630,
    "ब्रह्मन्</M>": 1631,
    "महर्षि": 1632,
    "यमे": 1633,
    "ष्टौ": 1634,
    "त्ना": 1635,
    "वार्य</M>": 1636,
    "नामि</M>": 1637,
    "महात्मनाम्</M>": 1638,
    "शत्रू": 1639,
    "यज्ञे": 1640,
    "श्छि": 1641,
    "ष्यते</M>": 1642,
    "द्धा": 1643,
    "भ्ये": 1644,
    "तपर्व": 1645,
    "कुला": 1646,
    "घृ": 1647,
    "न्द्रं</M>": 1648,
    "ब्रह्मा": 1649,
    "वेदा": 1650,
    "श्वरम्</M>": 1651,
    "क्षौ": 1652,
    "भर्ता": 1653,
    "र्हि": 1654,
    "कर्तुं</M>": 1655,
    "क्षा</M>": 1656,
    "नामा": 1657,
    "रिं": 1658,
    "र्भा": 1659,
    "टी": 1660,
    "तरम्</M>": 1661,
    "नराः</M>": 1662,
    "भवन्</M>": 1663,
    "महात्मानं</M>": 1664,
    "रामा": 1665,
    "श्रेष्ठो": 1666,
    "ण्ये</M>": 1667,
    "वरम्</M>": 1668,
    "स्तां</M>": 1669,
    "स्वनम्</M>": 1670,
    "क्तेन</M>": 1671,
    "क्रं</M>": 1672,
    "ङ्गो": 1673,
    "भार्या</M>": 1674,
    "ष्णं</M>": 1675,
    "सम्म": 1676,
    "स्यं</M>": 1677,
    "प्सि": 1678,
    "त्स्या": 1679,
    "न्तरि": 1680,
    "मनो</M>": 1681,
    "मन्द": 1682,
    "शुः": 1683,
    "सैः": 1684,
    "देवि</M>": 1685,
    "द्वान्</M>": 1686,
    "न्तम": 1687,
    "र्षे": 1688,
    "समि": 1689,
    "काम</M>": 1690,
    "भार्या": 1691,
    "यदु": 1692,
    "वानर": 1693,
    "ट्": 1694,
    "सम्पू": 1695,
    "क्षः</M>": 1696,
    "प्रत्या": 1697,
    "भ्यद्र": 1698,
    "क्य": 1699,
    "धनम्</M>": 1700,
    "प्रथ": 1701,
    "सर्वाः</M>": 1702,
    "थाः": 1703,
    "वानि": 1704,
    "स्तेषां</M>": 1705,
    "घ्न</M>": 1706,
    "चरा": 1707,
    "यज्ञा": 1708,
    "ष्पा": 1709,
    "स्थो": 1710,
    "स्थौ": 1711,
    "तेजाः": 1712,
    "वर्च": 1713,
    "क्तोऽ": 1714,
    "ग्": 1715,
    "देवस्य</M>": 1716,
    "सर्वै": 1717,
    "ख्यं</M>": 1718,
    "पुरुषः</M>": 1719,
    "क्ते</M>": 1720,
    "जन</M>": 1721,
    "ज्ञां": 1722,
    "मानि": 1723,
    "र्घो": 1724,
    "लौ": 1725,
    "स्यु": 1726,
    "क्ष्वा": 1727,
    "ग्रं</M>": 1728,
    "द्यो": 1729,
    "र्थि": 1730,
    "ल्ल": 1731,
    "समनु": 1732,
    "खी": 1733,
    "गतिः</M>": 1734,
    "नमि": 1735,
    "परः</M>": 1736,
    "विधि</M>": 1737,
    "किः": 1738,
    "पतेः": 1739,
    "ह्र": 1740,
    "द्विष": 1741,
    "धार्मि": 1742,
    "कार्य": 1743,
    "कुलम्</M>": 1744,
    "र्ये": 1745,
    "नरो": 1746,
    "पुत्रा</M>": 1747,
    "भीम</M>": 1748,
    "महि": 1749,
    "वन्त</M>": 1750,
    "ष्मा": 1751,
    "जयम्</M>": 1752,
    "द्यू": 1753,
    "र्षभः": 1754,
    "वने": 1755,
    "वीर्यं</M>": 1756,
    "वेद</M>": 1757,
    "ष्मः</M>": 1758,
    "प्राज्ञ": 1759,
    "ब्दे": 1760,
    "ब्रह्मा</M>": 1761,
    "विना</M>": 1762,
    "शरान्</M>": 1763,
    "श्रमं</M>": 1764,
    "सम्ब": 1765,
    "स्त्रै": 1766,
    "क्रमे</M>": 1767,
    "न्त्व": 1768,
    "महाबाहुः</M>": 1769,
    "न्यः</M>": 1770,
    "न्यथा</M>": 1771,
    "पतिं</M>": 1772,
    "विक्रा": 1773,
    "ष्ठो": 1774,
    "कृतो</M>": 1775,
    "क्ल": 1776,
    "जनम्</M>": 1777,
    "ज्वा": 1778,
    "त्स</M>": 1779,
    "वानरा": 1780,
    "श्ये": 1781,
    "त्सु</M>": 1782,
    "रमि": 1783,
    "रमु": 1784,
    "ज्जा": 1785,
    "न्द्रेण</M>": 1786,
    "न्यान्</M>": 1787,
    "पुनरा": 1788,
    "सम्प्रे": 1789,
    "त्यम": 1790,
    "दमा": 1791,
    "द्भू": 1792,
    "वर्मा</M>": 1793,
    "शं": 1794,
    "जनः</M>": 1795,
    "मनं</M>": 1796,
    "र्णा</M>": 1797,
    "र्षभाः": 1798,
    "स्तर": 1799,
    "कर्ता</M>": 1800,
    "पते": 1801,
    "मन्यते</M>": 1802,
    "जनं</M>": 1803,
    "तौ": 1804,
    "न्मु": 1805,
    "राज्य": 1806,
    "विदुः": 1807,
    "विष्ट": 1808,
    "ष्क": 1809,
    "तरो</M>": 1810,
    "त्यो</M>": 1811,
    "देवानां</M>": 1812,
    "पुनर": 1813,
    "श्मि": 1814,
    "ज्यते</M>": 1815,
    "मैः": 1816,
    "वार्ष्णे": 1817,
    "धारि": 1818,
    "न्मा": 1819,
    "न्यो</M>": 1820,
    "परो</M>": 1821,
    "मन्</M>": 1822,
    "शोका": 1823,
    "ह्नि": 1824,
    "ज्ञं": 1825,
    "भवा": 1826,
    "ऐ": 1827,
    "न्द्रः</M>": 1828,
    "मनि": 1829,
    "वन्तो</M>": 1830,
    "ङ्कि": 1831,
    "दमः</M>": 1832,
    "पुरे</M>": 1833,
    "राज</M>": 1834,
    "ञ्चि": 1835,
    "न्तरम्</M>": 1836,
    "मनाः</M>": 1837,
    "षू": 1838,
    "करं</M>": 1839,
    "त्मनि</M>": 1840,
    "र्ता": 1841,
    "विक्रम</M>": 1842,
    "स्त्वां</M>": 1843,
    "क्तुं</M>": 1844,
    "क्ष</M>": 1845,
    "चिः": 1846,
    "यदि": 1847,
    "र्यो</M>": 1848,
    "शां": 1849,
    "श्वान्</M>": 1850,
    "षिः": 1851,
    "स्तेऽ": 1852,
    "स्या</M>": 1853,
    "गतिं</M>": 1854,
    "जने</M>": 1855,
    "प्रमत्</M>": 1856,
    "क्तिं</M>": 1857,
    "क्म": 1858,
    "द्धः</M>": 1859,
    "परां": 1860,
    "म्न": 1861,
    "म्या": 1862,
    "र्धा": 1863,
    "वुः": 1864,
    "कृताः</M>": 1865,
    "गू": 1866,
    "ङ्मु": 1867,
    "चिन्त्य</M>": 1868,
    "त्त्व": 1869,
    "महीं": 1870,
    "ष्णी": 1871,
    "कर्णा": 1872,
    "घ्रा": 1873,
    "टे": 1874,
    "न्तरा": 1875,
    "यमि": 1876,
    "सहस्रं</M>": 1877,
    "स्तद्</M>": 1878,
    "त्त</M>": 1879,
    "न्यै": 1880,
    "भवेद्</M>": 1881,
    "र्ध्व": 1882,
    "ल्या</M>": 1883,
    "श्रेष्ठः": 1884,
    "द्री": 1885,
    "द्रोणो</M>": 1886,
    "र्धनि</M>": 1887,
    "वासं</M>": 1888,
    "ष्टिं": 1889,
    "स्ततः</M>": 1890,
    "द्दि": 1891,
    "पश्यन्</M>": 1892,
    "र्यथा</M>": 1893,
    "ल्य</M>": 1894,
    "व्यः</M>": 1895,
    "कथा": 1896,
    "ग्ध": 1897,
    "देवासु": 1898,
    "भैः": 1899,
    "हाः": 1900,
    "क्तम": 1901,
    "द्विजः</M>": 1902,
    "पुत्रौ": 1903,
    "ल्पा": 1904,
    "खाः": 1905,
    "न्मां</M>": 1906,
    "कर्शि": 1907,
    "ङ्गी": 1908,
    "णिः": 1909,
    "द्यम्य</M>": 1910,
    "द्रक्ष्य": 1911,
    "भाः": 1912,
    "मौ": 1913,
    "र्यं</M>": 1914,
    "खै": 1915,
    "द्या</M>": 1916,
    "वन</M>": 1917,
    "ङ्गु": 1918,
    "न्यत्</M>": 1919,
    "व्यम": 1920,
    "ढं": 1921,
    "भां": 1922,
    "श्यत</M>": 1923,
    "श्रेष्ठ": 1924,
    "षै": 1925,
    "जयो</M>": 1926,
    "परान्</M>": 1927,
    "यद्य": 1928,
    "लू": 1929,
    "प्रमे": 1930,
    "र्च": 1931,
    "र्यमा": 1932,
    "ष्णि": 1933,
    "स्पति": 1934,
    "जयत्</M>": 1935,
    "तरा": 1936,
    "पिः": 1937,
    "गां": 1938,
    "चेत्</M>": 1939,
    "ण्ये": 1940,
    "त्यः</M>": 1941,
    "द्रोणा": 1942,
    "नामि": 1943,
    "भर्ता</M>": 1944,
    "ष्ट्रो</M>": 1945,
    "तस्यां</M>": 1946,
    "पापे": 1947,
    "यशः</M>": 1948,
    "ल्म": 1949,
    "ज्ञि": 1950,
    "तरौ": 1951,
    "न्येन</M>": 1952,
    "क्त</M>": 1953,
    "क्ष्ण": 1954,
    "जां": 1955,
    "तिष्ठे": 1956,
    "त्कृते</M>": 1957,
    "देवै": 1958,
    "बले</M>": 1959,
    "राज्ञां": 1960,
    "र्बुद्</M>": 1961,
    "स्तौ</M>": 1962,
    "ह्यं</M>": 1963,
    "ङ्कां": 1964,
    "चरः</M>": 1965,
    "च्छि": 1966,
    "टं": 1967,
    "त्वै": 1968,
    "न्दे": 1969,
    "पुरुषं</M>": 1970,
    "ष्ट्वा</M>": 1971,
    "समो</M>": 1972,
    "ग्म": 1973,
    "घे": 1974,
    "र्हि</M>": 1975,
    "शते</M>": 1976,
    "सिं": 1977,
    "स्तत्</M>": 1978,
    "जयन्</M>": 1979,
    "ध्यत</M>": 1980,
    "ब्द": 1981,
    "रक्षा": 1982,
    "श्रेष्ठा": 1983,
    "स्त्रेण</M>": 1984,
    "तस्या</M>": 1985,
    "त्रस्य</M>": 1986,
    "त्वत्</M>": 1987,
    "द्भिः</M>": 1988,
    "राजं</M>": 1989,
    "सुखो": 1990,
    "स्मान्</M>": 1991,
    "कालो</M>": 1992,
    "णिं": 1993,
    "थं</M>": 1994,
    "दश्च</M>": 1995,
    "देवान्</M>": 1996,
    "पालि": 1997,
    "भीमः</M>": 1998,
    "महम्</M>": 1999,
    "ल्यो</M>": 2000,
    "वसे": 2001,
    "शृणु": 2002,
    "ङ्का": 2003,
    "ण्डो": 2004,
    "ण्या</M>": 2005,
    "दौ": 2006,
    "न्तां</M>": 2007,
    "श्चर": 2008,
    "षाः": 2009,
    "ष्यं</M>": 2010,
    "सुखे": 2011,
    "त्प्र": 2012,
    "परा</M>": 2013,
    "र्जा": 2014,
    "र्तं</M>": 2015,
    "वसन्</M>": 2016,
    "विष्टो": 2017,
    "सुखी": 2018,
    "जये": 2019,
    "द्द": 2020,
    "द्रस्य</M>": 2021,
    "र्यो": 2022,
    "वर्ते": 2023,
    "ग्मुः": 2024,
    "त्त": 2025,
    "त्मनो</M>": 2026,
    "द्यै": 2027,
    "द्वार": 2028,
    "भर्तृ": 2029,
    "ल्पि": 2030,
    "समभि": 2031,
    "ग्राम": 2032,
    "जन्म</M>": 2033,
    "द्रो</M>": 2034,
    "र्न": 2035,
    "श्रम</M>": 2036,
    "स्तम": 2037,
    "क्या": 2038,
    "क्रम": 2039,
    "क्ष्यति</M>": 2040,
    "न्दा": 2041,
    "परमां</M>": 2042,
    "बे": 2043,
    "ल्ले": 2044,
    "वानर</M>": 2045,
    "श्यं</M>": 2046,
    "कर्मा</M>": 2047,
    "च्च</M>": 2048,
    "छ्रि": 2049,
    "दमु": 2050,
    "म्बू": 2051,
    "विनि</M>": 2052,
    "ष्णा</M>": 2053,
    "स्वस्ति</M>": 2054,
    "ह्री": 2055,
    "दानेन</M>": 2056,
    "नामु": 2057,
    "न्त्या</M>": 2058,
    "शति": 2059,
    "श्वसन्</M>": 2060,
    "तरे": 2061,
    "द्रोणः</M>": 2062,
    "यश्चा": 2063,
    "स्तत": 2064,
    "कर्ता": 2065,
    "ग्न": 2066,
    "द्रा</M>": 2067,
    "रूपि": 2068,
    "र्थी": 2069,
    "तद</M>": 2070,
    "त्री</M>": 2071,
    "न्द</M>": 2072,
    "प्यते</M>": 2073,
    "रथी": 2074,
    "स्था</M>": 2075,
    "पर्यु": 2076,
    "महौ": 2077,
    "र्णे</M>": 2078,
    "वस्व": 2079,
    "ष्वा": 2080,
    "ष्वे": 2081,
    "ठ": 2082,
    "त्यो": 2083,
    "यज्ञो": 2084,
    "रथैः": 2085,
    "र्था</M>": 2086,
    "र्ब": 2087,
    "वर्ष</M>": 2088,
    "हरी": 2089,
    "त्रम": 2090,
    "द्रो": 2091,
    "राज्ञ": 2092,
    "र्हा": 2093,
    "वचा": 2094,
    "वीर्ये": 2095,
    "स्तद": 2096,
    "किं": 2097,
    "त्यं</M>": 2098,
    "दैः": 2099,
    "द्रि": 2100,
    "धर्मो": 2101,
    "वस्था": 2102,
    "ष्मो</M>": 2103,
    "स्तपो": 2104,
    "जन्</M>": 2105,
    "ञ्जा": 2106,
    "तमो": 2107,
    "तरु": 2108,
    "नमः</M>": 2109,
    "न्था": 2110,
    "पश्ये": 2111,
    "सर्वस्य</M>": 2112,
    "क्तान्</M>": 2113,
    "क्तै": 2114,
    "त्सहे</M>": 2115,
    "पत्नी</M>": 2116,
    "ह्या</M>": 2117,
    "तप्र": 2118,
    "पुन्</M>": 2119,
    "पुरी</M>": 2120,
    "मन्तं</M>": 2121,
    "र्ये</M>": 2122,
    "र्वन्</M>": 2123,
    "वानराः</M>": 2124,
    "स्यां</M>": 2125,
    "क्तानि</M>": 2126,
    "च्छा": 2127,
    "त्वर": 2128,
    "न्नाः</M>": 2129,
    "राम्</M>": 2130,
    "र्गे": 2131,
    "वर्णि": 2132,
    "द्रः</M>": 2133,
    "भ्यश्च</M>": 2134,
    "र्यात्</M>": 2135,
    "शरं</M>": 2136,
    "क्यमु": 2137,
    "ग्ने": 2138,
    "घं": 2139,
    "पुरी": 2140,
    "शाः": 2141,
    "सम्भ्रा": 2142,
    "कर्णेन</M>": 2143,
    "च्छे": 2144,
    "ण्ट": 2145,
    "भ्यं</M>": 2146,
    "रथिः": 2147,
    "ष्पि": 2148,
    "सहस्रेण</M>": 2149,
    "ङ्का</M>": 2150,
    "त्तमम्</M>": 2151,
    "त्यां</M>": 2152,
    "प्ति": 2153,
    "ब्दः</M>": 2154,
    "मन</M>": 2155,
    "वरो</M>": 2156,
    "ष्ट्रो": 2157,
    "ङ्गः": 2158,
    "त्रः</M>": 2159,
    "न्तीं": 2160,
    "न्नगा": 2161,
    "पत्रि": 2162,
    "ब्दं</M>": 2163,
    "यश्चैव</M>": 2164,
    "रथिं": 2165,
    "रथौ": 2166,
    "वर्धनः</M>": 2167,
    "वान्त": 2168,
    "ष्टां": 2169,
    "स्तदा": 2170,
    "स्ताः</M>": 2171,
    "स्मी": 2172,
    "स्वनैः": 2173,
    "ह्णा": 2174,
    "ह्म": 2175,
    "ह्ला": 2176,
    "चू": 2177,
    "ढो": 2178,
    "तमान्</M>": 2179,
    "ध्यं</M>": 2180,
    "नरा</M>": 2181,
    "पाला": 2182,
    "वदे": 2183,
    "वर्मा": 2184,
    "स्फा": 2185,
    "कालो": 2186,
    "च्य</M>": 2187,
    "ज्यं</M>": 2188,
    "त्रौ": 2189,
    "थ्यं</M>": 2190,
    "बलौ": 2191,
    "माना</M>": 2192,
    "र्ज</M>": 2193,
    "र्बु": 2194,
    "वनि": 2195,
    "श्वि": 2196,
    "सर्वसै": 2197,
    "स्फु": 2198,
    "तदे": 2199,
    "दाना": 2200,
    "परमे": 2201,
    "र्पि": 2202,
    "शतानि</M>": 2203,
    "स्यते</M>": 2204,
    "कुलः</M>": 2205,
    "त्यै": 2206,
    "द्यां</M>": 2207,
    "यदे": 2208,
    "समः</M>": 2209,
    "कृत्या</M>": 2210,
    "क्ष्णै": 2211,
    "जयामास</M>": 2212,
    "द्राव</M>": 2213,
    "द्रे": 2214,
    "र्": 2215,
    "र्यः</M>": 2216,
    "ल्पे": 2217,
    "ष्णो</M>": 2218,
    "स्त्वि": 2219,
    "ङ्खा": 2220,
    "त्मानमा": 2221,
    "थः": 2222,
    "द्दे": 2223,
    "पुः": 2224,
    "प्ताः</M>": 2225,
    "ब्दो</M>": 2226,
    "मन्ये": 2227,
    "विनिह": 2228,
    "श्चन</M>": 2229,
    "ष्ठः": 2230,
    "ग्रे</M>": 2231,
    "चर</M>": 2232,
    "त्मा": 2233,
    "धने</M>": 2234,
    "ध्यां</M>": 2235,
    "नीं": 2236,
    "ष्यमा": 2237,
    "सुः": 2238,
    "कर्मभिः</M>": 2239,
    "कारं</M>": 2240,
    "पर्य</M>": 2241,
    "शासनात्</M>": 2242,
    "स्पर्श": 2243,
    "कारा": 2244,
    "तमा</M>": 2245,
    "पत्र": 2246,
    "परैः": 2247,
    "र्दे": 2248,
    "वर्म": 2249,
    "करु": 2250,
    "ख्ये": 2251,
    "जने": 2252,
    "तमैः": 2253,
    "त्वरमा": 2254,
    "राजन्न": 2255,
    "र्प</M>": 2256,
    "र्वन्ति</M>": 2257,
    "वसे</M>": 2258,
    "वस्थितः</M>": 2259,
    "ष्मे": 2260,
    "स्त्वे": 2261,
    "कार्य</M>": 2262,
    "क्तस्य</M>": 2263,
    "त्वद": 2264,
    "द्यात्</M>": 2265,
    "न्तमा": 2266,
    "न्मया</M>": 2267,
    "र्श्व": 2268,
    "ष्ट्रं</M>": 2269,
    "कृत्स्नं</M>": 2270,
    "तमेव</M>": 2271,
    "नमे": 2272,
    "न्यत्र</M>": 2273,
    "प्तोऽ": 2274,
    "स्तृ": 2275,
    "तपा": 2276,
    "तमो</M>": 2277,
    "तोः": 2278,
    "त्रान्</M>": 2279,
    "द्यः</M>": 2280,
    "मन्त्र्य</M>": 2281,
    "यमिति</M>": 2282,
    "राजः</M>": 2283,
    "र्थाः": 2284,
    "वरि": 2285,
    "श्वं</M>": 2286,
    "हरे": 2287,
    "कामो</M>": 2288,
    "ढे": 2289,
    "ण्व": 2290,
    "न्धा": 2291,
    "पुत्रो": 2292,
    "भीमे": 2293,
    "म्भी": 2294,
    "यदृ": 2295,
    "वर्तमाने</M>": 2296,
    "समान": 2297,
    "स्पर": 2298,
    "स्रो": 2299,
    "जैः": 2300,
    "तर्प": 2301,
    "त्ता": 2302,
    "देवर्षि": 2303,
    "धर्मि": 2304,
    "वर्षं</M>": 2305,
    "विषो": 2306,
    "व्यु": 2307,
    "श्रमे</M>": 2308,
    "क्रो</M>": 2309,
    "त्रमा": 2310,
    "थैव</M>": 2311,
    "न्यद्</M>": 2312,
    "प्रमो": 2313,
    "भवं</M>": 2314,
    "मन्त": 2315,
    "ल्यः</M>": 2316,
    "शैः": 2317,
    "ष्वि": 2318,
    "स्थू": 2319,
    "ङ्घ": 2320,
    "न्धारी</M>": 2321,
    "पति</M>": 2322,
    "पश्यत्</M>": 2323,
    "भवनं</M>": 2324,
    "यज्ञं": 2325,
    "वं": 2326,
    "शतै": 2327,
    "श्रमा": 2328,
    "स्तेज": 2329,
    "स्त्वा": 2330,
    "कृत्य</M>": 2331,
    "तमृ": 2332,
    "त्नेन</M>": 2333,
    "त्याः</M>": 2334,
    "त्से": 2335,
    "त्स्थ</M>": 2336,
    "द्ये": 2337,
    "पाल</M>": 2338,
    "र्दश</M>": 2339,
    "र्नृ": 2340,
    "र्षा": 2341,
    "वरे</M>": 2342,
    "ह्णी": 2343,
    "त्प्रसा": 2344,
    "त्वे</M>": 2345,
    "नरो</M>": 2346,
    "न्त्यु": 2347,
    "न्मत्</M>": 2348,
    "वानृ": 2349,
    "विः": 2350,
    "वैश्र": 2351,
    "सत्या": 2352,
    "कामः</M>": 2353,
    "कामे": 2354,
    "खैः": 2355,
    "धने": 2356,
    "न्तश्च</M>": 2357,
    "पतद्</M>": 2358,
    "र्वृत्</M>": 2359,
    "लोका</M>": 2360,
    "वदु": 2361,
    "वर्णं</M>": 2362,
    "वानरे": 2363,
    "शत्या</M>": 2364,
    "श्रौ": 2365,
    "ष्करम्</M>": 2366,
    "सर्वैः": 2367,
    "स्तस्मिन्</M>": 2368,
    "स्तिष्ठ": 2369,
    "स्तो</M>": 2370,
    "कालः</M>": 2371,
    "कुलो": 2372,
    "क्या</M>": 2373,
    "न्तर": 2374,
    "भार्यां</M>": 2375,
    "भीमा": 2376,
    "र्घा": 2377,
    "ल्व": 2378,
    "श्राव</M>": 2379,
    "स्थः": 2380,
    "ङ्गै": 2381,
    "तरि": 2382,
    "र्दु": 2383,
    "ल्पं</M>": 2384,
    "वरान्</M>": 2385,
    "गन्धि": 2386,
    "ङ्घा": 2387,
    "चराः</M>": 2388,
    "तस्याः</M>": 2389,
    "न्धं</M>": 2390,
    "ब्ध्वा</M>": 2391,
    "म्बि": 2392,
    "र्ना": 2393,
    "लोक्य</M>": 2394,
    "व्ये</M>": 2395,
    "शोकं</M>": 2396,
    "श्लि": 2397,
    "स्ये</M>": 2398,
    "क्ष्यं</M>": 2399,
    "ण्डं": 2400,
    "त्मन": 2401,
    "द्रोणस्य</M>": 2402,
    "मानि</M>": 2403,
    "म्ये": 2404,
    "ल्बि": 2405,
    "वचं": 2406,
    "वर्धनम्</M>": 2407,
    "ह्ण": 2408,
    "काम्य</M>": 2409,
    "क्यो</M>": 2410,
    "त्नं</M>": 2411,
    "पर्ण": 2412,
    "प्राज्ञो": 2413,
    "मना</M>": 2414,
    "वदा": 2415,
    "वारु": 2416,
    "शास्त्रा": 2417,
    "श्ला": 2418,
    "सत्येन</M>": 2419,
    "छ्रे": 2420,
    "न्यम": 2421,
    "पुनरु": 2422,
    "बलो": 2423,
    "ब्धा": 2424,
    "र्गे</M>": 2425,
    "र्षी": 2426,
    "ष्करं</M>": 2427,
    "एवा": 2428,
    "जनि": 2429,
    "ण्यां</M>": 2430,
    "तदेव</M>": 2431,
    "तरे</M>": 2432,
    "त्यशः</M>": 2433,
    "द्वे</M>": 2434,
    "नौ": 2435,
    "शासना": 2436,
    "ष्णां</M>": 2437,
    "सत्यमे": 2438,
    "स्नु": 2439,
    "काम्बो": 2440,
    "कुले": 2441,
    "ङ्गे</M>": 2442,
    "ट्टि": 2443,
    "दानु": 2444,
    "नमनु": 2445,
    "भरतं</M>": 2446,
    "भ्राज": 2447,
    "र्यम": 2448,
    "स्तस्मा": 2449,
    "ह्रि": 2450,
    "क्ति</M>": 2451,
    "क्तौ</M>": 2452,
    "द्भ": 2453,
    "धन्वा</M>": 2454,
    "नामृ": 2455,
    "न्नम": 2456,
    "पुत्रै": 2457,
    "पूर्व</M>": 2458,
    "ब्धं</M>": 2459,
    "रामे</M>": 2460,
    "समाः": 2461,
    "सम्भू": 2462,
    "स्वै": 2463,
    "जये</M>": 2464,
    "द्विजाः": 2465,
    "न्तोऽ": 2466,
    "प्रथि": 2467,
    "महात्मानो</M>": 2468,
    "राज्ये</M>": 2469,
    "र्ध्वं</M>": 2470,
    "र्वै": 2471,
    "श्वर": 2472,
    "कुली": 2473,
    "क्रस्य</M>": 2474,
    "पती": 2475,
    "म्नं</M>": 2476,
    "लोक्य": 2477,
    "वसू": 2478,
    "वेदे": 2479,
    "व्ये": 2480,
    "ष्टै": 2481,
    "क्तां</M>": 2482,
    "क्रमे": 2483,
    "गन्धा": 2484,
    "चरम्</M>": 2485,
    "छृ": 2486,
    "जयेत्</M>": 2487,
    "देवदान": 2488,
    "नानां</M>": 2489,
    "न्तमिव</M>": 2490,
    "व्यो": 2491,
    "समा</M>": 2492,
    "सर्वां": 2493,
    "स्नि": 2494,
    "हौ": 2495,
    "ङ्क्ते</M>": 2496,
    "छो": 2497,
    "जनी": 2498,
    "प्रावि": 2499,
    "मां": 2500,
    "मानो</M>": 2501,
    "यमेव</M>": 2502,
    "रथै": 2503,
    "विनिश्</M>": 2504,
    "विनिस्</M>": 2505,
    "श्वराः</M>": 2506,
    "सम</M>": 2507,
    "कार्या</M>": 2508,
    "काल</M>": 2509,
    "क्रुः": 2510,
    "जयित्वा</M>": 2511,
    "द्रोणेन</M>": 2512,
    "न्याः</M>": 2513,
    "परो": 2514,
    "बलः</M>": 2515,
    "यदर्श": 2516,
    "र्षभ": 2517,
    "क्षाः": 2518,
    "ङ्गां": 2519,
    "तद्वि": 2520,
    "त्रां": 2521,
    "धनाः</M>": 2522,
    "परमा</M>": 2523,
    "र्यते</M>": 2524,
    "लोकाः</M>": 2525,
    "वाहं</M>": 2526,
    "ष्वासो</M>": 2527,
    "क्नु": 2528,
    "क्रौ": 2529,
    "च्ये": 2530,
    "द्विज</M>": 2531,
    "धर्मनि": 2532,
    "नामिव</M>": 2533,
    "पर्व</M>": 2534,
    "फे": 2535,
    "भर्तु": 2536,
    "महर्षे": 2537,
    "र्त्</M>": 2538,
    "वरो": 2539,
    "वासो</M>": 2540,
    "सर्वदा</M>": 2541,
    "कामान्</M>": 2542,
    "ख्या</M>": 2543,
    "गुरुः": 2544,
    "ग्निहो": 2545,
    "ञ्जन": 2546,
    "तेः": 2547,
    "तोऽपि</M>": 2548,
    "त्थ": 2549,
    "द्यो</M>": 2550,
    "नर्द": 2551,
    "नेः": 2552,
    "न्द्रम": 2553,
    "पुरीं": 2554,
    "बली": 2555,
    "र्ण</M>": 2556,
    "र्दश": 2557,
    "वन्तः</M>": 2558,
    "ष्णेन</M>": 2559,
    "स्तैः</M>": 2560,
    "केशा": 2561,
    "घ्नं</M>": 2562,
    "छू": 2563,
    "तेऽपि</M>": 2564,
    "त्रिं": 2565,
    "ध्वि": 2566,
    "न्ने</M>": 2567,
    "न्वे": 2568,
    "पत्नी": 2569,
    "पत्यं</M>": 2570,
    "पुत्राः</M>": 2571,
    "बलो</M>": 2572,
    "भरतः</M>": 2573,
    "र्भु": 2574,
    "वस्या": 2575,
    "वाहा": 2576,
    "हरिः": 2577,
    "धारा": 2578,
    "पुरुषे": 2579,
    "र्गो": 2580,
    "र्ध्नि</M>": 2581,
    "र्वे": 2582,
    "ल्लोकान्</M>": 2583,
    "ल्लोके</M>": 2584,
    "वानरः</M>": 2585,
    "ष्णः</M>": 2586,
    "ष्वासः</M>": 2587,
    "सर्वान": 2588,
    "सुखि": 2589,
    "कार्ये": 2590,
    "ग्य": 2591,
    "तमे</M>": 2592,
    "द्यं</M>": 2593,
    "नारी": 2594,
    "न्त्ये": 2595,
    "र्महाराज</M>": 2596,
    "र्यथा": 2597,
    "र्वाः</M>": 2598,
    "र्विवि": 2599,
    "र्षं</M>": 2600,
    "शोक</M>": 2601,
    "श्राव": 2602,
    "क्तश्च</M>": 2603,
    "जन्ति</M>": 2604,
    "टु": 2605,
    "त्प</M>": 2606,
    "त्मानम": 2607,
    "नारी</M>": 2608,
    "न्द्रो": 2609,
    "पुत्रे": 2610,
    "प्राज्ञः": 2611,
    "भग्न": 2612,
    "भरतो</M>": 2613,
    "भ्रम": 2614,
    "ल्मी": 2615,
    "उप</M>": 2616,
    "चौ": 2617,
    "छ्र": 2618,
    "दमे": 2619,
    "द्धं</M>": 2620,
    "बल</M>": 2621,
    "मिं": 2622,
    "यमौ</M>": 2623,
    "र्णां</M>": 2624,
    "र्या</M>": 2625,
    "ष्प्र": 2626,
    "हं": 2627,
    "कर्णि": 2628,
    "जन्म": 2629,
    "जयद्रथ": 2630,
    "थ्या": 2631,
    "न्दं</M>": 2632,
    "पत्य</M>": 2633,
    "पां": 2634,
    "प्राज्ञा": 2635,
    "भौ": 2636,
    "रमे": 2637,
    "लोको</M>": 2638,
    "वनः</M>": 2639,
    "वसत्</M>": 2640,
    "वासी": 2641,
    "ष्ट्वै": 2642,
    "सम्परि": 2643,
    "कर्णे</M>": 2644,
    "कृतां</M>": 2645,
    "चर्म": 2646,
    "तमान": 2647,
    "त्रु": 2648,
    "देवो": 2649,
    "न्य</M>": 2650,
    "महाबाहुं": 2651,
    "यम्भु": 2652,
    "य्या": 2653,
    "वस्त्रा": 2654,
    "श्वो</M>": 2655,
    "ष्या</M>": 2656,
    "स्वनाः</M>": 2657,
    "करम्</M>": 2658,
    "करे</M>": 2659,
    "करो</M>": 2660,
    "काम्</M>": 2661,
    "ग्नौ</M>": 2662,
    "त्मभिः</M>": 2663,
    "दाने</M>": 2664,
    "ध्यत्</M>": 2665,
    "न्मृ": 2666,
    "परमो</M>": 2667,
    "लक्ष्मी": 2668,
    "ल्ला": 2669,
    "वर्तत</M>": 2670,
    "वर्धि": 2671,
    "व्र</M>": 2672,
    "ष्ट्वा": 2673,
    "स्पर्श</M>": 2674,
    "क्त्रा": 2675,
    "छ्रा": 2676,
    "थी": 2677,
    "थ्या</M>": 2678,
    "द्वौ": 2679,
    "न्मो": 2680,
    "पाप</M>": 2681,
    "भवः</M>": 2682,
    "भ्योऽ": 2683,
    "महात्मानः</M>": 2684,
    "मान</M>": 2685,
    "यम</M>": 2686,
    "वीर्या": 2687,
    "ष्प</M>": 2688,
    "सर्वो": 2689,
    "सोऽपि</M>": 2690,
    "क्रेण</M>": 2691,
    "क्ष्म": 2692,
    "घ्नु": 2693,
    "घ्रो</M>": 2694,
    "ङ्क्ष": 2695,
    "ञ्चन</M>": 2696,
    "त्यान्</M>": 2697,
    "द्वारं</M>": 2698,
    "द्विजे": 2699,
    "नार्ह": 2700,
    "पुरुषा</M>": 2701,
    "प्रत्य</M>": 2702,
    "भगि": 2703,
    "र्दी": 2704,
    "र्ह</M>": 2705,
    "लोक</M>": 2706,
    "वनौ": 2707,
    "वीर्यो</M>": 2708,
    "श्म</M>": 2709,
    "स्वर्गे</M>": 2710,
    "ग्निः": 2711,
    "तमहं</M>": 2712,
    "दशरथ": 2713,
    "दानि</M>": 2714,
    "नुः": 2715,
    "न्त्या": 2716,
    "न्यात्</M>": 2717,
    "ब्धा</M>": 2718,
    "मानस्य</M>": 2719,
    "र्पा": 2720,
    "र्यस्य</M>": 2721,
    "ल्क": 2722,
    "शत्र": 2723,
    "शिखा": 2724,
    "कृत्यं</M>": 2725,
    "ग्नि</M>": 2726,
    "ग्भि": 2727,
    "ग्वि": 2728,
    "चैः": 2729,
    "ण्यु": 2730,
    "तमनु": 2731,
    "त्यदा</M>": 2732,
    "त्रैः": 2733,
    "न्यमभि": 2734,
    "र्विद्</M>": 2735,
    "श्वः</M>": 2736,
    "सम्पा": 2737,
    "क्नो": 2738,
    "क्रः</M>": 2739,
    "क्रोधं</M>": 2740,
    "क्ष्ये</M>": 2741,
    "च्चा": 2742,
    "न्तर्हि": 2743,
    "न्ताः</M>": 2744,
    "मह्यं</M>": 2745,
    "र्ति</M>": 2746,
    "विष्टः": 2747,
    "सहे": 2748,
    "स्त्री</M>": 2749,
    "स्थु": 2750,
    "स्थै": 2751,
    "कृतो": 2752,
    "क्तमा": 2753,
    "घू": 2754,
    "ञ्जि": 2755,
    "त्पि": 2756,
    "पुत्रम": 2757,
    "प्तौ</M>": 2758,
    "भाषे": 2759,
    "य्या</M>": 2760,
    "रम्यं</M>": 2761,
    "र्द</M>": 2762,
    "वद्भि": 2763,
    "वसु</M>": 2764,
    "विक्रम": 2765,
    "शोकेन</M>": 2766,
    "ष्णस्य</M>": 2767,
    "ष्णु": 2768,
    "सम्बा": 2769,
    "स्त्वरि": 2770,
    "हां": 2771,
    "कामा</M>": 2772,
    "कुलि": 2773,
    "क्राम</M>": 2774,
    "गुरुं": 2775,
    "ग्धा": 2776,
    "ण्यो</M>": 2777,
    "तप्तं</M>": 2778,
    "दानीं": 2779,
    "द्राव": 2780,
    "धनस्य</M>": 2781,
    "धर्मा</M>": 2782,
    "न्धि": 2783,
    "यज्ञः": 2784,
    "य॑": 2785,
    "राज्या": 2786,
    "र्भव": 2787,
    "र्षो": 2788,
    "वदि": 2789,
    "स्तः</M>": 2790,
    "तापि": 2791,
    "पाण्डू": 2792,
    "पुत्रे</M>": 2793,
    "प्तां</M>": 2794,
    "प्तै": 2795,
    "भ्यते</M>": 2796,
    "मन्यो": 2797,
    "र्दा": 2798,
    "र्मे": 2799,
    "र्व्य": 2800,
    "ल्लोका": 2801,
    "श्वा</M>": 2802,
    "ष्ट्रः</M>": 2803,
    "स्याः</M>": 2804,
    "स्वे</M>": 2805,
    "कर्मभि": 2806,
    "क्षु</M>": 2807,
    "ग्निं": 2808,
    "त्ति": 2809,
    "देवराज": 2810,
    "न्नु": 2811,
    "पूर्वे": 2812,
    "प्सु": 2813,
    "रिः": 2814,
    "वीं": 2815,
    "व्याः</M>": 2816,
    "श्छ": 2817,
    "हर्षा": 2818,
    "घाः": 2819,
    "च्या": 2820,
    "ज्ज्ञा": 2821,
    "ज्रा": 2822,
    "ञ्जी": 2823,
    "दर्शा": 2824,
    "धन्वि": 2825,
    "नुं": 2826,
    "मानः</M>": 2827,
    "म्प्र": 2828,
    "लिं": 2829,
    "ष्णे</M>": 2830,
    "स्वर्ण": 2831,
    "हीं": 2832,
    "कारो</M>": 2833,
    "ग्यं</M>": 2834,
    "जयि": 2835,
    "त्मनाम्</M>": 2836,
    "दशे": 2837,
    "न्दो</M>": 2838,
    "म्यं</M>": 2839,
    "म्र": 2840,
    "र्धर्म": 2841,
    "र्धा</M>": 2842,
    "र्वेद": 2843,
    "वार्यमा": 2844,
    "व्येन</M>": 2845,
    "व्यै": 2846,
    "शरो": 2847,
    "ष्वासं</M>": 2848,
    "सम्मि": 2849,
    "स्थ</M>": 2850,
    "स्वर": 2851,
    "क्यमि": 2852,
    "क्वचि": 2853,
    "ख्य": 2854,
    "जयौ</M>": 2855,
    "टः": 2856,
    "तमौ</M>": 2857,
    "द्विवि": 2858,
    "नरं</M>": 2859,
    "पश्यत</M>": 2860,
    "वन्यो": 2861,
    "वरा</M>": 2862,
    "श्रमः</M>": 2863,
    "सह्य</M>": 2864,
    "कर्हि": 2865,
    "क्ष्णं</M>": 2866,
    "ङ्के</M>": 2867,
    "ज्वरः</M>": 2868,
    "तप्त": 2869,
    "तां": 2870,
    "त्कृत्य</M>": 2871,
    "त्थ</M>": 2872,
    "द्रम": 2873,
    "परमो": 2874,
    "पुर</M>": 2875,
    "प्तान्</M>": 2876,
    "प्रो</M>": 2877,
    "म्बा": 2878,
    "रावृ": 2879,
    "र्गि": 2880,
    "र्विष": 2881,
    "ष्मे</M>": 2882,
    "सर्वाने": 2883,
    "स्त्या": 2884,
    "स्प": 2885,
    "कालि": 2886,
    "क्रोधो</M>": 2887,
    "चरान्</M>": 2888,
    "च्चै": 2889,
    "डु": 2890,
    "तत्रो": 2891,
    "तप्तः</M>": 2892,
    "त्सह": 2893,
    "नाम्ना</M>": 2894,
    "बला</M>": 2895,
    "महात्मने</M>": 2896,
    "मानेन</M>": 2897,
    "मिः": 2898,
    "यशो": 2899,
    "रक्षे": 2900,
    "र्व</M>": 2901,
    "विक्रमे": 2902,
    "शरौ": 2903,
    "श्व</M>": 2904,
    "षैः": 2905,
    "स्तस्मात्</M>": 2906,
    "स्वां": 2907,
    "ख्य</M>": 2908,
    "ग्ला": 2909,
    "तप्तो</M>": 2910,
    "दशै": 2911,
    "द्धा</M>": 2912,
    "द्रेण</M>": 2913,
    "न्योऽ": 2914,
    "पश्यं</M>": 2915,
    "मन्दा": 2916,
    "म्नो</M>": 2917,
    "म्ले": 2918,
    "रक्ष्यमा": 2919,
    "रथ</M>": 2920,
    "रूपो": 2921,
    "र्ते</M>": 2922,
    "वनो": 2923,
    "स्ततो</M>": 2924,
    "स्तस्या": 2925,
    "कार्यम": 2926,
    "चेति</M>": 2927,
    "छं": 2928,
    "तर</M>": 2929,
    "तरो": 2930,
    "त्वदी": 2931,
    "देवीं": 2932,
    "धनि": 2933,
    "धीः": 2934,
    "न्धो</M>": 2935,
    "न्नो": 2936,
    "परै": 2937,
    "पैः": 2938,
    "य्यं</M>": 2939,
    "र्बल": 2940,
    "वर्ग": 2941,
    "शास्त्रं</M>": 2942,
    "ष्कृतम्</M>": 2943,
    "सहं</M>": 2944,
    "सहो": 2945,
    "तरम": 2946,
    "त्व</M>": 2947,
    "ध्यमानं</M>": 2948,
    "ध्वी": 2949,
    "नामपि</M>": 2950,
    "न्तै": 2951,
    "न्यमा": 2952,
    "प्रतिष्ठा": 2953,
    "रक्ष</M>": 2954,
    "रम्भा": 2955,
    "र्छि": 2956,
    "वद</M>": 2957,
    "वास्य</M>": 2958,
    "वीर्यः</M>": 2959,
    "सत्ये</M>": 2960,
    "कर्णो": 2961,
    "कर्श": 2962,
    "ग्धं</M>": 2963,
    "झ": 2964,
    "त्स्व</M>": 2965,
    "द्याः</M>": 2966,
    "नार्जु": 2967,
    "न्तमि": 2968,
    "प्रा</M>": 2969,
    "ब्धो</M>": 2970,
    "यज्ञै": 2971,
    "रम</M>": 2972,
    "रेः": 2973,
    "व्री": 2974,
    "औ": 2975,
    "जन्तु": 2976,
    "जयै": 2977,
    "ढुं": 2978,
    "त्पत्य</M>": 2979,
    "देव्या</M>": 2980,
    "द्रां": 2981,
    "नमो": 2982,
    "न्नै": 2983,
    "पुरु": 2984,
    "फु": 2985,
    "मन्त्रं</M>": 2986,
    "यद्ये": 2987,
    "र्योऽ": 2988,
    "र्व्या": 2989,
    "र्षिः": 2990,
    "लोकः</M>": 2991,
    "ण्ठ": 2992,
    "ण्डः": 2993,
    "धनू": 2994,
    "न्यद": 2995,
    "परमया</M>": 2996,
    "परेण</M>": 2997,
    "महात्मानौ</M>": 2998,
    "माने": 2999,
    "रामो": 3000,
    "सम्प्राप्य</M>": 3001,
    "स्कृतः</M>": 3002,
    "स्तानि</M>": 3003,
    "स्त्रे": 3004,
    "स्फी": 3005,
    "क्तानां</M>": 3006,
    "तदै": 3007,
    "तेजः</M>": 3008,
    "त्ते</M>": 3009,
    "त्र्य": 3010,
    "धनेन</M>": 3011,
    "पापो": 3012,
    "पूर्वा": 3013,
    "प्रेण</M>": 3014,
    "प्सु</M>": 3015,
    "म्ना</M>": 3016,
    "यम्य</M>": 3017,
    "विष्टा": 3018,
    "व्यमा": 3019,
    "शराः</M>": 3020,
    "श्ना": 3021,
    "स्तरेण</M>": 3022,
    "स्विनाम्</M>": 3023,
    "ह्यस्य</M>": 3024,
    "क्यते</M>": 3025,
    "घ्रः</M>": 3026,
    "च्चित्</M>": 3027,
    "जनी</M>": 3028,
    "ज्जि": 3029,
    "ज्ञाः": 3030,
    "त्त्वं</M>": 3031,
    "त्यमु": 3032,
    "देवैः": 3033,
    "नागं</M>": 3034,
    "न्मि": 3035,
    "भवम्</M>": 3036,
    "भ्रु": 3037,
    "य्य": 3038,
    "र्णो</M>": 3039,
    "र्तो</M>": 3040,
    "र्भी": 3041,
    "ल्का": 3042,
    "ल्लो": 3043,
    "वसी": 3044,
    "वानरान्</M>": 3045,
    "वायुः": 3046,
    "वाह</M>": 3047,
    "व्रा": 3048,
    "शतिः</M>": 3049,
    "श्वास्य</M>": 3050,
    "ष्ट्रान्</M>": 3051,
    "ष्यो</M>": 3052,
    "कृत्वा": 3053,
    "ग्धा</M>": 3054,
    "ग्राम</M>": 3055,
    "ग्रामं</M>": 3056,
    "णीं": 3057,
    "ण्यः</M>": 3058,
    "तप्ता</M>": 3059,
    "द्मि": 3060,
    "ध्र": 3061,
    "नमभि": 3062,
    "निहि": 3063,
    "न्दी": 3064,
    "प्रावृ": 3065,
    "प्रै": 3066,
    "भविष्यामि</M>": 3067,
    "म्रि": 3068,
    "यीं": 3069,
    "र्हे": 3070,
    "वाने": 3071,
    "वारा": 3072,
    "विक्रमाः": 3073,
    "श्वरथ": 3074,
    "श्वै": 3075,
    "सम्मो": 3076,
    "स्वरं</M>": 3077,
    "कथां": 3078,
    "क्षै": 3079,
    "ग्ना</M>": 3080,
    "छी": 3081,
    "तमू": 3082,
    "द्यौ": 3083,
    "द्रोण</M>": 3084,
    "न्त्र": 3085,
    "न्दः</M>": 3086,
    "न्नग": 3087,
    "न्मह": 3088,
    "बलैः": 3089,
    "ब्धः</M>": 3090,
    "भर्तुः</M>": 3091,
    "भवेदि": 3092,
    "म्पा": 3093,
    "र्वच": 3094,
    "ल्लै": 3095,
    "वर्जयेत्</M>": 3096,
    "विष्टा</M>": 3097,
    "श्मनि</M>": 3098,
    "हर्तु": 3099,
    "एवन्</M>": 3100,
    "ओ": 3101,
    "क्त्वा": 3102,
    "क्ली": 3103,
    "क्षुः": 3104,
    "त्मने</M>": 3105,
    "दानी": 3106,
    "धर्मान्</M>": 3107,
    "पर</M>": 3108,
    "भवन्तं</M>": 3109,
    "मानां</M>": 3110,
    "रोः": 3111,
    "र्मनु": 3112,
    "र्यां</M>": 3113,
    "श्रमे": 3114,
    "ष्ट्रेण</M>": 3115,
    "स्तमा": 3116,
    "क्तैः</M>": 3117,
    "थ्य</M>": 3118,
    "नामे": 3119,
    "न्द्रा</M>": 3120,
    "न्मू": 3121,
    "ब्दा": 3122,
    "यशो</M>": 3123,
    "र्युद्</M>": 3124,
    "वान्तर": 3125,
    "वार्षि": 3126,
    "वासृ": 3127,
    "श्चरि": 3128,
    "ष्ट्रा</M>": 3129,
    "सहः</M>": 3130,
    "स्तेजो": 3131,
    "स्परं</M>": 3132,
    "स्वर्गं</M>": 3133,
    "करे": 3134,
    "कुशि": 3135,
    "कृतै": 3136,
    "क्ष्णैः</M>": 3137,
    "ज्ज्व": 3138,
    "तदर्श": 3139,
    "तपुत्रं</M>": 3140,
    "त्राः</M>": 3141,
    "त्रिः": 3142,
    "दशरथा": 3143,
    "ध्यमाना</M>": 3144,
    "नागे": 3145,
    "न्तमु": 3146,
    "न्तेऽ": 3147,
    "पतः</M>": 3148,
    "प्तम": 3149,
    "प्रत्यदृ": 3150,
    "प्रान्</M>": 3151,
    "मन्तो</M>": 3152,
    "राज्यम": 3153,
    "र्तु": 3154,
    "लक्ष्यते</M>": 3155,
    "ल्ये</M>": 3156,
    "वरू": 3157,
    "विक्रम्य</M>": 3158,
    "विष्टं</M>": 3159,
    "व्यदृ": 3160,
    "शोको</M>": 3161,
    "श्वरं</M>": 3162,
    "ष्कृतं</M>": 3163,
    "ष्याः</M>": 3164,
    "स्रं</M>": 3165,
    "कृत्स्ना</M>": 3166,
    "ग्यो": 3167,
    "घ्ने</M>": 3168,
    "चर्या": 3169,
    "दमि": 3170,
    "द्भा": 3171,
    "ध्यः</M>": 3172,
    "भार्य</M>": 3173,
    "म्पत</M>": 3174,
    "यमः</M>": 3175,
    "यमनु": 3176,
    "यमो": 3177,
    "र्तेन</M>": 3178,
    "लक्षि": 3179,
    "लक्ष्य</M>": 3180,
    "वन्तश्च</M>": 3181,
    "वर्णा</M>": 3182,
    "वर्म</M>": 3183,
    "वाना": 3184,
    "वेदान्</M>": 3185,
    "ष्कि": 3186,
    "ष्पे": 3187,
    "समानी": 3188,
    "सर्वर": 3189,
    "स्तां": 3190,
    "उपे": 3191,
    "क्यः</M>": 3192,
    "क्ष्यते</M>": 3193,
    "च्छ</M>": 3194,
    "च्यं</M>": 3195,
    "त्क्षि": 3196,
    "दशरथो": 3197,
    "नमो</M>": 3198,
    "प्रः</M>": 3199,
    "बाहुं": 3200,
    "भाष्य</M>": 3201,
    "मने</M>": 3202,
    "राजन्ना": 3203,
    "र्गं</M>": 3204,
    "र्ब्राह्म": 3205,
    "वीर्य</M>": 3206,
    "ष्टिः": 3207,
    "ष्यः</M>": 3208,
    "सम्भा": 3209,
    "सर्वासु</M>": 3210,
    "सहै": 3211,
    "स्त्रम": 3212,
    "क्ते": 3213,
    "क्रोधे": 3214,
    "ग्रेण</M>": 3215,
    "घ्नो</M>": 3216,
    "त्मन्</M>": 3217,
    "त्सुः": 3218,
    "दानी</M>": 3219,
    "द्वारि": 3220,
    "धेः": 3221,
    "न्दो": 3222,
    "न्द्रे</M>": 3223,
    "न्नां</M>": 3224,
    "न्महाराज</M>": 3225,
    "प्राः</M>": 3226,
    "भग्ना": 3227,
    "राजी": 3228,
    "र्देव": 3229,
    "र्यत</M>": 3230,
    "र्षभा": 3231,
    "वद्या": 3232,
    "वासे</M>": 3233,
    "सर्वः</M>": 3234,
    "सां": 3235,
    "स्ताप": 3236,
    "स्पतिः</M>": 3237,
    "स्पर्ध": 3238,
    "स्यो</M>": 3239,
    "स्वस्ति": 3240,
    "काम्य": 3241,
    "कार्त": 3242,
    "केश</M>": 3243,
    "क्ला": 3244,
    "तत्त्व</M>": 3245,
    "तपुत्रस्य</M>": 3246,
    "तप्य": 3247,
    "तमिव</M>": 3248,
    "दानां</M>": 3249,
    "द्मा": 3250,
    "ध्वन्</M>": 3251,
    "प्तुं</M>": 3252,
    "भरता": 3253,
    "यश्चित्</M>": 3254,
    "रम्ये</M>": 3255,
    "राजं": 3256,
    "र्णि": 3257,
    "र्ष</M>": 3258,
    "वेदं</M>": 3259,
    "श्वरो</M>": 3260,
    "ष्ठी": 3261,
    "ष्यान्</M>": 3262,
    "हर्षे": 3263,
    "ह्यते</M>": 3264,
    "ह्वो": 3265,
    "कथा</M>": 3266,
    "कृतम": 3267,
    "कृते": 3268,
    "क्तमि": 3269,
    "ग्रा</M>": 3270,
    "ङ्गाः": 3271,
    "ञ्चित्</M>": 3272,
    "ढः": 3273,
    "ण्ण": 3274,
    "ण्म": 3275,
    "त्पे": 3276,
    "त्म</M>": 3277,
    "त्मानो</M>": 3278,
    "पापैः": 3279,
    "प्तु": 3280,
    "रुः": 3281,
    "र्दु</M>": 3282,
    "र्दुश्</M>": 3283,
    "र्दुस्</M>": 3284,
    "विष्णो": 3285,
    "वेदाः": 3286,
    "शिखै": 3287,
    "श्वर्यं</M>": 3288,
    "हर</M>": 3289,
    "कामि": 3290,
    "केशि": 3291,
    "क्यमे": 3292,
    "क्षां</M>": 3293,
    "क्ष्णा": 3294,
    "घः": 3295,
    "चिन्ति": 3296,
    "ज्जी": 3297,
    "ज्या</M>": 3298,
    "ठे": 3299,
    "ण्यम": 3300,
    "तमौ": 3301,
    "तरूप": 3302,
    "त्कु": 3303,
    "त्ये</M>": 3304,
    "द्रोणे</M>": 3305,
    "धनम": 3306,
    "न्नर": 3307,
    "न्नृ": 3308,
    "न्मे": 3309,
    "न्व</M>": 3310,
    "परामृ": 3311,
    "पश्यद्</M>": 3312,
    "पाला</M>": 3313,
    "प्तमि": 3314,
    "प्यं</M>": 3315,
    "प्रविष्टो": 3316,
    "भगी": 3317,
    "भवन्तो</M>": 3318,
    "म्यते</M>": 3319,
    "लोक्यं</M>": 3320,
    "ल्यां</M>": 3321,
    "वस्तु</M>": 3322,
    "वान</M>": 3323,
    "शर्मि": 3324,
    "स्रा": 3325,
    "स्वन": 3326,
    "ह्न": 3327,
    "कारै": 3328,
    "कृति</M>": 3329,
    "कृत्या": 3330,
    "जयद्रथः</M>": 3331,
    "जयस्य</M>": 3332,
    "तमभि": 3333,
    "तरां": 3334,
    "नमेव</M>": 3335,
    "नोः": 3336,
    "न्यैः": 3337,
    "परस्य</M>": 3338,
    "भीमो": 3339,
    "यदी": 3340,
    "यन</M>": 3341,
    "रथा</M>": 3342,
    "र्नाम</M>": 3343,
    "र्मो": 3344,
    "र्षः</M>": 3345,
    "ल्लोक": 3346,
    "विषं</M>": 3347,
    "व्यमिति</M>": 3348,
    "षुः": 3349,
    "समू": 3350,
    "स्फो": 3351,
    "कामै": 3352,
    "कारी</M>": 3353,
    "कारेण</M>": 3354,
    "कार्ति": 3355,
    "क्येन</M>": 3356,
    "क्रमा": 3357,
    "ग्नी": 3358,
    "चिन्ता": 3359,
    "ड्ग": 3360,
    "त्त्व</M>": 3361,
    "त्मना": 3362,
    "त्रमु": 3363,
    "ध्यो</M>": 3364,
    "नमुपा": 3365,
    "नर्त": 3366,
    "न्मन": 3367,
    "पालो</M>": 3368,
    "प्यस्य</M>": 3369,
    "मान्धा": 3370,
    "राजि": 3371,
    "र्त</M>": 3372,
    "ष्मान्</M>": 3373,
    "ष्यन्</M>": 3374,
    "सर्वो</M>": 3375,
    "सहम्</M>": 3376,
    "स्करः</M>": 3377,
    "स्म्य": 3378,
    "कर्त</M>": 3379,
    "कारु": 3380,
    "घ्रा</M>": 3381,
    "च्छामि</M>": 3382,
    "च्या</M>": 3383,
    "जनानां</M>": 3384,
    "तरा</M>": 3385,
    "त्कृतः</M>": 3386,
    "त्वस्य</M>": 3387,
    "धन्विनाम्</M>": 3388,
    "न्द्रमाः": 3389,
    "न्ध</M>": 3390,
    "न्नरः</M>": 3391,
    "पुत्रि": 3392,
    "पुरे": 3393,
    "ब्रह्मो": 3394,
    "मन्यत</M>": 3395,
    "म्बो": 3396,
    "र्ब्रह्म": 3397,
    "र्मनी": 3398,
    "ल्पो": 3399,
    "वार्जु": 3400,
    "ष्ट्रे": 3401,
    "ष्वासा": 3402,
    "सम्भवम्</M>": 3403,
    "ङ्गेन</M>": 3404,
    "जन्ते</M>": 3405,
    "तमहा": 3406,
    "त्प्रि": 3407,
    "त्युः": 3408,
    "थां": 3409,
    "न्त्यो</M>": 3410,
    "न्द्राः</M>": 3411,
    "प्रभाः": 3412,
    "प्स्या": 3413,
    "ब्रह्मह": 3414,
    "मूः": 3415,
    "रम्या</M>": 3416,
    "रम्यां</M>": 3417,
    "र्महे": 3418,
    "र्मू": 3419,
    "वानरा</M>": 3420,
    "ष्णौ": 3421,
    "स्थाः": 3422,
    "कारान्</M>": 3423,
    "कार्यः</M>": 3424,
    "कृतानि</M>": 3425,
    "कृत्वः</M>": 3426,
    "कृत्स्नां</M>": 3427,
    "क्राम": 3428,
    "खां": 3429,
    "टाः": 3430,
    "तमुपा": 3431,
    "त्यद्भु": 3432,
    "त्सि": 3433,
    "त्स्थः": 3434,
    "धनो": 3435,
    "रमनु": 3436,
    "राज्ञे": 3437,
    "र्तः</M>": 3438,
    "र्त्य": 3439,
    "र्नर": 3440,
    "र्षभौ</M>": 3441,
    "वस</M>": 3442,
    "वीर्ये</M>": 3443,
    "वेद्य</M>": 3444,
    "वैश": 3445,
    "शरा</M>": 3446,
    "शर्म</M>": 3447,
    "श्लक्ष्ण": 3448,
    "ष्क्रा": 3449,
    "ष्णो": 3450,
    "ष्वासाः": 3451,
    "सम्भृ": 3452,
    "स्पर्शा": 3453,
    "ह्ने</M>": 3454,
    "ह्वा": 3455,
    "क्त्रं</M>": 3456,
    "क्यै": 3457,
    "क्रे": 3458,
    "घ्रौ": 3459,
    "ट्य</M>": 3460,
    "तपुत्र": 3461,
    "तापि</M>": 3462,
    "त्तं</M>": 3463,
    "त्पति": 3464,
    "त्पत्</M>": 3465,
    "त्यमेव</M>": 3466,
    "द्म</M>": 3467,
    "द्राः</M>": 3468,
    "न्तरमा": 3469,
    "पतिष्ठ": 3470,
    "पुत्री</M>": 3471,
    "मन्व": 3472,
    "योऽपि</M>": 3473,
    "र्भृ": 3474,
    "वचै": 3475,
    "वनमा": 3476,
    "वरौ": 3477,
    "श्वो": 3478,
    "स्कर": 3479,
    "स्रु": 3480,
    "ह्यु": 3481,
    "करा</M>": 3482,
    "कामो": 3483,
    "कृतप्र": 3484,
    "घां": 3485,
    "ङ्क</M>": 3486,
    "चेताः</M>": 3487,
    "ट्ट": 3488,
    "ण्यमा": 3489,
    "तद्वचनं</M>": 3490,
    "तापा": 3491,
    "त्म्यं</M>": 3492,
    "त्यमा": 3493,
    "नार्थं</M>": 3494,
    "न्धः</M>": 3495,
    "न्धे": 3496,
    "न्मही": 3497,
    "पर्णा": 3498,
    "पूर्वे</M>": 3499,
    "मन्युः": 3500,
    "महात्मभिः</M>": 3501,
    "यश</M>": 3502,
    "र्दृ": 3503,
    "र्दो": 3504,
    "र्वाक्यं</M>": 3505,
    "ल्पते</M>": 3506,
    "वन्त": 3507,
    "वसं</M>": 3508,
    "वस्त्र": 3509,
    "विधिः": 3510,
    "शरे": 3511,
    "ष्क्रम्य</M>": 3512,
    "स्कृतम्</M>": 3513,
    "कारे</M>": 3514,
    "क्मि": 3515,
    "ख्यै": 3516,
    "ग्रामा": 3517,
    "ग्रामे": 3518,
    "त्तम": 3519,
    "ध्यमानस्य</M>": 3520,
    "प्तस्य</M>": 3521,
    "ब्धाः</M>": 3522,
    "भरतस्य</M>": 3523,
    "म्नस्य</M>": 3524,
    "यमानो</M>": 3525,
    "यश्चापि</M>": 3526,
    "यश्चै": 3527,
    "रम्या": 3528,
    "र्मे</M>": 3529,
    "लोको": 3530,
    "वनात्</M>": 3531,
    "वसि</M>": 3532,
    "व्यमि": 3533,
    "शतेन</M>": 3534,
    "श्वसे": 3535,
    "ष्ण्य": 3536,
    "स्त्रे</M>": 3537,
    "स्विना</M>": 3538,
    "ह्वा</M>": 3539,
    "कृतिः</M>": 3540,
    "क्ष्म</M>": 3541,
    "जना</M>": 3542,
    "जयो": 3543,
    "तरी": 3544,
    "त्युं": 3545,
    "धनैः": 3546,
    "धुः": 3547,
    "नरान्</M>": 3548,
    "न्त्याः</M>": 3549,
    "न्द्रे": 3550,
    "बृ": 3551,
    "मानी</M>": 3552,
    "माने</M>": 3553,
    "म्नः</M>": 3554,
    "यमो</M>": 3555,
    "र्जयः</M>": 3556,
    "र्बला": 3557,
    "र्श्वे</M>": 3558,
    "ल्यै": 3559,
    "वरे": 3560,
    "वान्व": 3561,
    "वार्ण": 3562,
    "वार्थं</M>": 3563,
    "वासः</M>": 3564,
    "विष्टे": 3565,
    "व्यमु": 3566,
    "शता</M>": 3567,
    "शत्रो": 3568,
    "श्चर्यं</M>": 3569,
    "श्चिन्त": 3570,
    "श्रेष्ठे": 3571,
    "हैः": 3572,
    "क्रोधः</M>": 3573,
    "ग्ज्यो": 3574,
    "ग्रो</M>": 3575,
    "घैः": 3576,
    "ञ्च</M>": 3577,
    "तदेवं</M>": 3578,
    "तप्यते</M>": 3579,
    "द्रोणो": 3580,
    "द्वन्द्व": 3581,
    "ध्यमाना": 3582,
    "नम</M>": 3583,
    "न्धू": 3584,
    "न्नित्यं</M>": 3585,
    "न्नौ</M>": 3586,
    "पतौ</M>": 3587,
    "पुन</M>": 3588,
    "भवो</M>": 3589,
    "य्य</M>": 3590,
    "रावि": 3591,
    "रुं": 3592,
    "र्तमिव</M>": 3593,
    "र्ताः</M>": 3594,
    "र्भीम": 3595,
    "वरै": 3596,
    "वानरैः": 3597,
    "विक्र": 3598,
    "वेदा</M>": 3599,
    "वैश्या": 3600,
    "शतान्</M>": 3601,
    "षौ": 3602,
    "ष्पं</M>": 3603,
    "स्करम्</M>": 3604,
    "कृतेन</M>": 3605,
    "कृतोऽ": 3606,
    "क्ष्यमा": 3607,
    "तराः</M>": 3608,
    "त्तमा": 3609,
    "धन्वना</M>": 3610,
    "ध्वानं</M>": 3611,
    "न्नमि": 3612,
    "न्नेन</M>": 3613,
    "बलिं": 3614,
    "र्जगाम</M>": 3615,
    "र्तानां</M>": 3616,
    "वनै": 3617,
    "वन्न</M>": 3618,
    "वर्षै": 3619,
    "वसुः": 3620,
    "वस्त": 3621,
    "वेदी": 3622,
    "श्छा": 3623,
    "श्मी": 3624,
    "श्वानां</M>": 3625,
    "ष्टैः": 3626,
    "हरं</M>": 3627,
    "हरः</M>": 3628,
    "कर्मनि": 3629,
    "कारः</M>": 3630,
    "कार्ये</M>": 3631,
    "कृतमि": 3632,
    "क्तमे": 3633,
    "क्यमा": 3634,
    "ग्रो": 3635,
    "ङ्गैः": 3636,
    "तप्रा": 3637,
    "तर्क": 3638,
    "त्नम": 3639,
    "त्वो": 3640,
    "त्सा</M>": 3641,
    "दमौ</M>": 3642,
    "दर्शी": 3643,
    "द्दा": 3644,
    "ध्रि": 3645,
    "नामी": 3646,
    "न्था</M>": 3647,
    "पुरुष</M>": 3648,
    "पुरुषाः": 3649,
    "भ्यन</M>": 3650,
    "महर्षी": 3651,
    "म्यद्य</M>": 3652,
    "र्बि": 3653,
    "र्मह": 3654,
    "र्षा</M>": 3655,
    "वन्दे": 3656,
    "वराः</M>": 3657,
    "वस्य": 3658,
    "शते": 3659,
    "ष्णीं": 3660,
    "सहस्रस्य</M>": 3661,
    "सहो</M>": 3662,
    "स्थुः": 3663,
    "स्युः": 3664,
    "स्वनं</M>": 3665,
    "कृताम्</M>": 3666,
    "ख्यौ</M>": 3667,
    "चर्म</M>": 3668,
    "जुः": 3669,
    "ण्टा": 3670,
    "त्नै": 3671,
    "त्वद्वि": 3672,
    "त्वानि</M>": 3673,
    "दानस्य</M>": 3674,
    "धन्वानं</M>": 3675,
    "ध्यमे</M>": 3676,
    "नगा": 3677,
    "न्थि": 3678,
    "न्नगः": 3679,
    "पुनर्वि": 3680,
    "प्रसाद्य</M>": 3681,
    "मन्तः</M>": 3682,
    "मन्यद्</M>": 3683,
    "मानाः</M>": 3684,
    "राजन्नु": 3685,
    "र्थ्य</M>": 3686,
    "र्भिः</M>": 3687,
    "ल्ग": 3688,
    "ल्लैः": 3689,
    "वस्तथा</M>": 3690,
    "सम्भवः</M>": 3691,
    "स्त्वर": 3692,
    "स्वर्गा": 3693,
    "हर्षि": 3694,
    "कुः": 3695,
    "क्रोध</M>": 3696,
    "क्ष्मा": 3697,
    "गति</M>": 3698,
    "ग्ना": 3699,
    "चरं</M>": 3700,
    "चर्ये": 3701,
    "चिन्त्य": 3702,
    "जृ": 3703,
    "डो": 3704,
    "ढाः": 3705,
    "तपुत्रः</M>": 3706,
    "तपुत्रो</M>": 3707,
    "तापं</M>": 3708,
    "त्यस्य</M>": 3709,
    "त्रमि": 3710,
    "देवर्ष": 3711,
    "द्भ्यां</M>": 3712,
    "न्दा</M>": 3713,
    "न्धार</M>": 3714,
    "भारं</M>": 3715,
    "मान्य</M>": 3716,
    "यमानं</M>": 3717,
    "रक्षः</M>": 3718,
    "राज्यस्य</M>": 3719,
    "र्तमपि</M>": 3720,
    "र्नाना": 3721,
    "र्वसु": 3722,
    "वान्ये</M>": 3723,
    "वीर्यस्य</M>": 3724,
    "शति</M>": 3725,
    "शत्रुः": 3726,
    "शोकः</M>": 3727,
    "स्त्रैः": 3728,
    "कर्ष</M>": 3729,
    "कर्षि": 3730,
    "कारा</M>": 3731,
    "कार्षी": 3732,
    "कृत</M>": 3733,
    "कृतैः</M>": 3734,
    "क्तिः</M>": 3735,
    "क्ष्णेन</M>": 3736,
    "घ्रमा": 3737,
    "ङ्कु": 3738,
    "ङ्के": 3739,
    "चरैः": 3740,
    "ण्याः</M>": 3741,
    "त्यदान": 3742,
    "द्वारा": 3743,
    "धार्थं</M>": 3744,
    "नर्म": 3745,
    "न्तम्</M>": 3746,
    "न्धां": 3747,
    "प्यमानं</M>": 3748,
    "भवने</M>": 3749,
    "मन्युं": 3750,
    "यां": 3751,
    "र्दै": 3752,
    "र्भे": 3753,
    "र्महात्मनः</M>": 3754,
    "र्मही": 3755,
    "र्यत्र</M>": 3756,
    "र्षु": 3757,
    "र्हः</M>": 3758,
    "वनो</M>": 3759,
    "वर्णाः</M>": 3760,
    "व्यस्य</M>": 3761,
    "शतम्</M>": 3762,
    "शर्मा": 3763,
    "श्न</M>": 3764,
    "ष्ट्रे</M>": 3765,
    "स्तम्भ": 3766,
    "कुला</M>": 3767,
    "कृतिं</M>": 3768,
    "केशी": 3769,
    "ग्रे": 3770,
    "घ्नुः": 3771,
    "जनेन</M>": 3772,
    "ञ्ज</M>": 3773,
    "ण्येन</M>": 3774,
    "त्वारि": 3775,
    "थौ": 3776,
    "दीं": 3777,
    "ध्यमानो</M>": 3778,
    "ध्र</M>": 3779,
    "न्तान्</M>": 3780,
    "न्ते": 3781,
    "प्रमृ": 3782,
    "म्नि</M>": 3783,
    "म्बे": 3784,
    "यमान": 3785,
    "र्गः": 3786,
    "र्णः</M>": 3787,
    "र्मधु": 3788,
    "र्मनाः</M>": 3789,
    "र्महात्मा</M>": 3790,
    "र्यश्च</M>": 3791,
    "वर्तते</M>": 3792,
    "वर्तमानस्य</M>": 3793,
    "वस्थां": 3794,
    "विष्णुं": 3795,
    "श्ले": 3796,
    "श्वसू": 3797,
    "ष्ठां": 3798,
    "स्तद</M>": 3799,
    "स्तमु": 3800,
    "स्तरु": 3801,
    "स्तेषु</M>": 3802,
    "स्त्व</M>": 3803,
    "स्मान": 3804,
    "स्वस्त्य</M>": 3805,
    "स्वानि</M>": 3806,
    "हर्षः</M>": 3807,
    "कथाः": 3808,
    "कर्तृ": 3809,
    "कुलो</M>": 3810,
    "कृती</M>": 3811,
    "केशं</M>": 3812,
    "क्ष्यै": 3813,
    "ज्रं</M>": 3814,
    "ड्य</M>": 3815,
    "ण्य</M>": 3816,
    "तीः": 3817,
    "त्कृ": 3818,
    "त्यू": 3819,
    "त्स्थं</M>": 3820,
    "देवि": 3821,
    "द्रक्ष्यामि</M>": 3822,
    "द्वन्</M>": 3823,
    "ध्यद्</M>": 3824,
    "ध्यन्</M>": 3825,
    "ध्यमानाः</M>": 3826,
    "नर्थ": 3827,
    "नागाः": 3828,
    "पत्य": 3829,
    "प्रमेव</M>": 3830,
    "भवन्तः</M>": 3831,
    "भवान": 3832,
    "म्भा": 3833,
    "यमहं</M>": 3834,
    "र्णे": 3835,
    "र्भीमसे": 3836,
    "र्मुनि": 3837,
    "वनस्य</M>": 3838,
    "शोकार्ता</M>": 3839,
    "श्नी": 3840,
    "श्वरा": 3841,
    "ष्ठाः": 3842,
    "ष्वासा</M>": 3843,
    "सत्ये": 3844,
    "सम्मू": 3845,
    "स्यू": 3846,
    "हरम्</M>": 3847,
    "कामाः": 3848,
    "क्तम्</M>": 3849,
    "ग्रः</M>": 3850,
    "घ्राः</M>": 3851,
    "चर्मा": 3852,
    "जनस्य</M>": 3853,
    "ज्यमानो</M>": 3854,
    "डे": 3855,
    "ण्डू": 3856,
    "तपुत्रेण</M>": 3857,
    "त्ता</M>": 3858,
    "त्रम्</M>": 3859,
    "त्वम्</M>": 3860,
    "त्सुं": 3861,
    "दश्व</M>": 3862,
    "ध्यमा</M>": 3863,
    "ध्यु": 3864,
    "न्तमनु": 3865,
    "न्दानु": 3866,
    "न्प्र": 3867,
    "पत्या": 3868,
    "पुरम्</M>": 3869,
    "ब्र": 3870,
    "भग्नं</M>": 3871,
    "भवद्भि": 3872,
    "भूः": 3873,
    "भ्यामा": 3874,
    "मन्ति</M>": 3875,
    "महात्म": 3876,
    "यमानः</M>": 3877,
    "र्गत्</M>": 3878,
    "र्तिः</M>": 3879,
    "र्याः</M>": 3880,
    "ल्प</M>": 3881,
    "वन्तौ</M>": 3882,
    "वर्णो</M>": 3883,
    "वस्त</M>": 3884,
    "विष्णुः": 3885,
    "शरः</M>": 3886,
    "श्च्यु": 3887,
    "श्वसि": 3888,
    "श्वे</M>": 3889,
    "ष्पै": 3890,
    "ष्प्रा": 3891,
    "ष्वनि": 3892,
    "सर्वास्त्र": 3893,
    "स्वरम्</M>": 3894,
    "स्विद्</M>": 3895,
    "हर्ता</M>": 3896,
    "क्रमी": 3897,
    "क्षैः": 3898,
    "क्ष्मं</M>": 3899,
    "खु": 3900,
    "ख्याः</M>": 3901,
    "ख्येन</M>": 3902,
    "जयेन</M>": 3903,
    "ञ्जया": 3904,
    "ड्भि": 3905,
    "ढु": 3906,
    "ण्ठा": 3907,
    "तत्त्व": 3908,
    "तत्र": 3909,
    "त्पत": 3910,
    "देवस्तु</M>": 3911,
    "धनु</M>": 3912,
    "ध्वरे</M>": 3913,
    "न्तरा</M>": 3914,
    "न्धनम्</M>": 3915,
    "न्धे</M>": 3916,
    "न्नानां</M>": 3917,
    "पत्रा": 3918,
    "परम</M>": 3919,
    "पापः</M>": 3920,
    "प्तानां</M>": 3921,
    "बाहुः</M>": 3922,
    "मानात्</M>": 3923,
    "मानी": 3924,
    "मानै": 3925,
    "र्भग": 3926,
    "र्युधि</M>": 3927,
    "र्हा</M>": 3928,
    "ल्ब": 3929,
    "ल्यस्य</M>": 3930,
    "श्चरे": 3931,
    "श्वसं": 3932,
    "ष्यत</M>": 3933,
    "स्तमि": 3934,
    "स्तरे": 3935,
    "स्वर्गो": 3936,
    "करथे": 3937,
    "कार्यो</M>": 3938,
    "ख्यान्</M>": 3939,
    "ग्मि": 3940,
    "ग्या": 3941,
    "घी": 3942,
    "ङ्क्षि": 3943,
    "चरा</M>": 3944,
    "ञ्जय</M>": 3945,
    "तत्सर्वं</M>": 3946,
    "तद्वाक्यं</M>": 3947,
    "त्कारु": 3948,
    "त्सो": 3949,
    "त्स्थो": 3950,
    "नार्यो</M>": 3951,
    "न्नस्य</M>": 3952,
    "न्महाबा": 3953,
    "न्यां": 3954,
    "पुत्रैः": 3955,
    "प्ते": 3956,
    "भवेद": 3957,
    "मन्थ": 3958,
    "म्या</M>": 3959,
    "र्गृ": 3960,
    "र्तिं</M>": 3961,
    "र्नित्यं</M>": 3962,
    "र्भरतर्षभ</M>": 3963,
    "र्भो</M>": 3964,
    "र्मा</M>": 3965,
    "ल्मा": 3966,
    "ल्यश्च</M>": 3967,
    "वनम": 3968,
    "वानामनी": 3969,
    "शोको": 3970,
    "श्वासा": 3971,
    "षीं": 3972,
    "स्तरम्</M>": 3973,
    "स्वना</M>": 3974,
    "कर्मे": 3975,
    "कृतान्</M>": 3976,
    "केशो</M>": 3977,
    "क्रोधौ": 3978,
    "घै": 3979,
    "घ्नः</M>": 3980,
    "घ्रम": 3981,
    "चतुः</M>": 3982,
    "ञ्छि": 3983,
    "ण्यस्य</M>": 3984,
    "त्यौ</M>": 3985,
    "त्र्यम्ब": 3986,
    "त्सन्</M>": 3987,
    "दश्चैव</M>": 3988,
    "दानम": 3989,
    "ध्यमानः</M>": 3990,
    "ध्वस्त": 3991,
    "निं": 3992,
    "न्तस्य</M>": 3993,
    "न्द्रान्</M>": 3994,
    "न्नगाः": 3995,
    "पराः</M>": 3996,
    "पुत्रमनु": 3997,
    "ब्धे": 3998,
    "मनृ": 3999,
    "मन्त</M>": 4000,
    "महो</M>": 4001,
    "मूं": 4002,
    "म्ना": 4003,
    "म्पे": 4004,
    "म्ब्य</M>": 4005,
    "म्भो</M>": 4006,
    "म्येन</M>": 4007,
    "म्रा": 4008,
    "यं": 4009,
    "यमुपा": 4010,
    "र्भो": 4011,
    "र्महात्मभिः</M>": 4012,
    "र्मृ": 4013,
    "ल्का</M>": 4014,
    "वना</M>": 4015,
    "वर्धन्ते</M>": 4016,
    "विषे": 4017,
    "वीर्या</M>": 4018,
    "वू": 4019,
    "वेदो": 4020,
    "शर्मा</M>": 4021,
    "श्लोक": 4022,
    "स्तर्प": 4023,
    "स्वनेन</M>": 4024,
    "स्वान्</M>": 4025,
    "कर</M>": 4026,
    "कर्मि": 4027,
    "कामानां</M>": 4028,
    "कुल</M>": 4029,
    "क्तो": 4030,
    "चतु</M>": 4031,
    "च्चि": 4032,
    "डी": 4033,
    "ण्डै": 4034,
    "तपौ": 4035,
    "तरेण</M>": 4036,
    "त्मनो": 4037,
    "द्धाः</M>": 4038,
    "नरैः": 4039,
    "नामनु": 4040,
    "न्यते</M>": 4041,
    "पुं": 4042,
    "प्तानि</M>": 4043,
    "ब्धौ": 4044,
    "भरतानां</M>": 4045,
    "भोः": 4046,
    "मुनि</M>": 4047,
    "म्पि": 4048,
    "यमाना": 4049,
    "र्दत्</M>": 4050,
    "र्मी": 4051,
    "र्वे</M>": 4052,
    "र्हरि": 4053,
    "वन्दि": 4054,
    "वर्णस्य</M>": 4055,
    "वर्त्य</M>": 4056,
    "वानी": 4057,
    "विषा</M>": 4058,
    "ष्यशृ": 4059,
    "सहस्रे": 4060,
    "स्त्वत्</M>": 4061,
    "स्रः</M>": 4062,
    "हर्तुं</M>": 4063,
    "हिं": 4064,
    "कृतस्य</M>": 4065,
    "ङ्गौ": 4066,
    "चिन्ता</M>": 4067,
    "जनमा": 4068,
    "ज्जन": 4069,
    "ज्रेण</M>": 4070,
    "तमना</M>": 4071,
    "तमी": 4072,
    "त्सहे": 4073,
    "द्मना": 4074,
    "ध्यौ</M>": 4075,
    "नरै": 4076,
    "न्तेन</M>": 4077,
    "न्धि</M>": 4078,
    "न्मधु": 4079,
    "न्मि</M>": 4080,
    "न्वी": 4081,
    "पालाः": 4082,
    "प्रक्षि": 4083,
    "प्रावर्त</M>": 4084,
    "महि</M>": 4085,
    "मानृ": 4086,
    "यमं</M>": 4087,
    "यमानस्य</M>": 4088,
    "यमित्</M>": 4089,
    "रम्भ": 4090,
    "राजनि": 4091,
    "राज्ये": 4092,
    "रूपाः": 4093,
    "र्जयम्</M>": 4094,
    "र्पो": 4095,
    "र्वैः": 4096,
    "ल्यम": 4097,
    "ल्येन</M>": 4098,
    "वानरो": 4099,
    "वासम": 4100,
    "वास्तु</M>": 4101,
    "शतैः</M>": 4102,
    "शास्ति</M>": 4103,
    "ष्पो": 4104,
    "सम्प्रति</M>": 4105,
    "स्करं</M>": 4106,
    "स्त्रो</M>": 4107,
    "स्वस्थ": 4108,
    "ह्यम": 4109,
    "ह्वी": 4110,
    "कृत्य": 4111,
    "क्त्र": 4112,
    "ग्ल": 4113,
    "जनैः": 4114,
    "ज्जे": 4115,
    "ज्ञै": 4116,
    "डं": 4117,
    "तापे": 4118,
    "दान</M>": 4119,
    "दान्वि": 4120,
    "द्धौ": 4121,
    "धनै": 4122,
    "नागै": 4123,
    "नागो": 4124,
    "नामानि</M>": 4125,
    "न्धो": 4126,
    "न्नगो": 4127,
    "न्स": 4128,
    "न्सु": 4129,
    "पूर्वां": 4130,
    "प्रत्यू": 4131,
    "प्रभाष": 4132,
    "प्रविष्टा</M>": 4133,
    "बलै": 4134,
    "महाः": 4135,
    "रूपः</M>": 4136,
    "र्पति</M>": 4137,
    "ल्लि": 4138,
    "वची": 4139,
    "विं": 4140,
    "विक्री": 4141,
    "व्यौ</M>": 4142,
    "शरेण</M>": 4143,
    "श्चर्य": 4144,
    "श्मानि</M>": 4145,
    "श्रमो</M>": 4146,
    "श्रावि": 4147,
    "श्रेष्ठाः": 4148,
    "श्वान": 4149,
    "ष्कर": 4150,
    "ष्ट्या": 4151,
    "ष्ट्राः</M>": 4152,
    "ष्ठु": 4153,
    "सत्यम": 4154,
    "सहस्राक्ष": 4155,
    "स्त्यो</M>": 4156,
    "स्त्रमु": 4157,
    "स्यः</M>": 4158,
    "हर्ष</M>": 4159,
    "केशः</M>": 4160,
    "क्ये</M>": 4161,
    "ख्यस्य</M>": 4162,
    "गुः": 4163,
    "ग्नः</M>": 4164,
    "जन्तं</M>": 4165,
    "जयश्च</M>": 4166,
    "जया</M>": 4167,
    "ट्टा": 4168,
    "णां": 4169,
    "तद्वचः</M>": 4170,
    "तमन्व": 4171,
    "त्नमा": 4172,
    "त्परि": 4173,
    "त्फु": 4174,
    "त्सी": 4175,
    "त्स्थ": 4176,
    "त्स्यते</M>": 4177,
    "दमू": 4178,
    "द्धे": 4179,
    "धर्मानु": 4180,
    "नमृ": 4181,
    "न्थाः": 4182,
    "न्द्रमा": 4183,
    "पतत्</M>": 4184,
    "पतां</M>": 4185,
    "पत्स्य": 4186,
    "प्यत्र</M>": 4187,
    "प्रविष्टः": 4188,
    "बू": 4189,
    "भविष्या": 4190,
    "भ्रू": 4191,
    "मन्त्रा": 4192,
    "यदः</M>": 4193,
    "यदू": 4194,
    "र्गन्ध": 4195,
    "र्च्य</M>": 4196,
    "र्भरत": 4197,
    "र्वचनं</M>": 4198,
    "र्वार": 4199,
    "र्विशे": 4200,
    "वन्द": 4201,
    "वन्नि": 4202,
    "वरी</M>": 4203,
    "वस्तदा</M>": 4204,
    "वासे": 4205,
    "विक्रो": 4206,
    "वैश्य": 4207,
    "शर्वरी</M>": 4208,
    "शास</M>": 4209,
    "शास्ता</M>": 4210,
    "शुं": 4211,
    "श्चेति</M>": 4212,
    "श्विना": 4213,
    "ष्पिता": 4214,
    "ष्यै": 4215,
    "सम्पत": 4216,
    "सहस्रान्</M>": 4217,
    "सहस्रे</M>": 4218,
    "स्त्रमा": 4219,
    "स्थां": 4220,
    "स्वना": 4221,
    "स्वनो</M>": 4222,
    "ह्रा": 4223,
    "कृती": 4224,
    "क्कि": 4225,
    "क्ती": 4226,
    "क्याः</M>": 4227,
    "क्रमाः": 4228,
    "क्रमि": 4229,
    "ग्नं</M>": 4230,
    "ग्ने</M>": 4231,
    "ङ्खः": 4232,
    "च्छु": 4233,
    "जनो</M>": 4234,
    "जन्त": 4235,
    "तरमा": 4236,
    "त्कि": 4237,
    "त्तमान्</M>": 4238,
    "त्मानः</M>": 4239,
    "थ्येन</M>": 4240,
    "दर्श</M>": 4241,
    "दशरथः</M>": 4242,
    "दानात्</M>": 4243,
    "द्ध</M>": 4244,
    "द्धो": 4245,
    "द्रमा": 4246,
    "धन्वी": 4247,
    "धारं</M>": 4248,
    "ध्वा": 4249,
    "नाग्नि": 4250,
    "न्वन्</M>": 4251,
    "पर्यदेव": 4252,
    "पालं</M>": 4253,
    "पालै": 4254,
    "प्तदक्षि": 4255,
    "प्रैः": 4256,
    "प्ला": 4257,
    "मन्ति": 4258,
    "मन्म": 4259,
    "मानो": 4260,
    "म्भो": 4261,
    "यज्ञि": 4262,
    "र्णाः</M>": 4263,
    "र्धे": 4264,
    "र्बलं</M>": 4265,
    "र्यमु": 4266,
    "ल्पः</M>": 4267,
    "वन्तु</M>": 4268,
    "वर्ती</M>": 4269,
    "वार्थे": 4270,
    "विष्व": 4271,
    "व्यात्</M>": 4272,
    "शासि": 4273,
    "ष्करे": 4274,
    "ष्यमू": 4275,
    "स्त्य</M>": 4276,
    "स्वनु": 4277,
    "उपो": 4278,
    "करी</M>": 4279,
    "क्तमु": 4280,
    "क्यैः": 4281,
    "क्ष्ये": 4282,
    "ग्ये</M>": 4283,
    "ग्रान्</M>": 4284,
    "ग्रै": 4285,
    "चरे</M>": 4286,
    "च्छति</M>": 4287,
    "जू": 4288,
    "ज्यमानः</M>": 4289,
    "ज्रि": 4290,
    "ण्ठे": 4291,
    "तर्द": 4292,
    "त्वद्य</M>": 4293,
    "त्वाहं</M>": 4294,
    "त्स्ये</M>": 4295,
    "द्भवः</M>": 4296,
    "ध्रा": 4297,
    "न्तिं</M>": 4298,
    "न्त्यः</M>": 4299,
    "न्द्या": 4300,
    "न्द्रमा</M>": 4301,
    "न्महत्</M>": 4302,
    "परमि": 4303,
    "पाण्डोः": 4304,
    "प्रविद्</M>": 4305,
    "प्रविष्ट": 4306,
    "भगे</M>": 4307,
    "भग्ना</M>": 4308,
    "भ्योऽपि</M>": 4309,
    "मन्य</M>": 4310,
    "म्णा</M>": 4311,
    "म्भि": 4312,
    "रक्षा</M>": 4313,
    "रम्भो</M>": 4314,
    "र्जे": 4315,
    "र्ते": 4316,
    "र्ने": 4317,
    "र्मया</M>": 4318,
    "र्लोक": 4319,
    "र्वं</M>": 4320,
    "र्वचः</M>": 4321,
    "लोक्ये</M>": 4322,
    "वर्णान्</M>": 4323,
    "विधिं": 4324,
    "वेद्यं</M>": 4325,
    "व्यते</M>": 4326,
    "व्यशी": 4327,
    "शिखो": 4328,
    "श्नं</M>": 4329,
    "श्या</M>": 4330,
    "श्लोका": 4331,
    "ष्मो": 4332,
    "ष्वनी": 4333,
    "स्वित्</M>": 4334,
    "स्वैः": 4335,
    "उपत": 4336,
    "करान्</M>": 4337,
    "क्रमुः": 4338,
    "क्ष्वे": 4339,
    "ग्न्य": 4340,
    "ङ्कः</M>": 4341,
    "चिन्त्यं</M>": 4342,
    "चिन्त्या": 4343,
    "छै": 4344,
    "छ्रे</M>": 4345,
    "जनो": 4346,
    "ड्": 4347,
    "ण्वन्</M>": 4348,
    "तद्यु": 4349,
    "तप्यथाः": 4350,
    "तमै": 4351,
    "तरान्</M>": 4352,
    "तिष्ठा": 4353,
    "त्सि</M>": 4354,
    "थ्वी": 4355,
    "धार</M>": 4356,
    "धारणे</M>": 4357,
    "नमी": 4358,
    "न्तर्धा": 4359,
    "न्त्वे": 4360,
    "न्द्य</M>": 4361,
    "पत्सु</M>": 4362,
    "पापी": 4363,
    "पुरमा": 4364,
    "प्तेन</M>": 4365,
    "भर्ति</M>": 4366,
    "यमाना</M>": 4367,
    "रमृ": 4368,
    "रम्ये": 4369,
    "रूप</M>": 4370,
    "र्णै": 4371,
    "र्द्र": 4372,
    "र्मन्त्रि": 4373,
    "र्महाबलः</M>": 4374,
    "ल्लक्ष्म": 4375,
    "वदेव</M>": 4376,
    "वनी": 4377,
    "वन्त्यौ</M>": 4378,
    "वरमा": 4379,
    "वर्णे": 4380,
    "वानरै": 4381,
    "वार्या": 4382,
    "समे</M>": 4383,
    "समो": 4384,
    "स्त्यः</M>": 4385,
    "स्त्यस्य</M>": 4386,
    "स्पतेः": 4387,
    "स्रो</M>": 4388,
    "कथ्यते</M>": 4389,
    "काराः</M>": 4390,
    "कुशा": 4391,
    "क्कु": 4392,
    "क्ष्या</M>": 4393,
    "ख्यः</M>": 4394,
    "ग्ध्वा</M>": 4395,
    "ङ्क्षी": 4396,
    "चर्या</M>": 4397,
    "च्यः</M>": 4398,
    "छ्रो": 4399,
    "ज्जु": 4400,
    "ञ्छु": 4401,
    "तद्वत्</M>": 4402,
    "तमना": 4403,
    "त्कृतं</M>": 4404,
    "त्प्रा": 4405,
    "त्येन</M>": 4406,
    "त्र्यां</M>": 4407,
    "त्वार्थ": 4408,
    "त्स्व": 4409,
    "देवदू": 4410,
    "देवदेवे": 4411,
    "देवरा": 4412,
    "द्रमृ": 4413,
    "द्वारमा": 4414,
    "धनमु": 4415,
    "नगो": 4416,
    "न्त्रा": 4417,
    "न्धी": 4418,
    "पराजयः</M>": 4419,
    "पाण्डो": 4420,
    "पुत्रमा": 4421,
    "पुरस्य</M>": 4422,
    "पूर्वा</M>": 4423,
    "ब्दै": 4424,
    "भव्य": 4425,
    "भार्यः</M>": 4426,
    "भ्राम": 4427,
    "मन्नं</M>": 4428,
    "मन्या": 4429,
    "रक्षां</M>": 4430,
    "रमुपा": 4431,
    "राजन्न</M>": 4432,
    "राज्येन</M>": 4433,
    "र्ग्र": 4434,
    "र्जय": 4435,
    "र्तस्य</M>": 4436,
    "र्वान्</M>": 4437,
    "वचे": 4438,
    "वानरं</M>": 4439,
    "वार्यो": 4440,
    "विष्णोः": 4441,
    "शतां</M>": 4442,
    "शोके</M>": 4443,
    "श्चौ": 4444,
    "ष्यस्य</M>": 4445,
    "ष्वासौ</M>": 4446,
    "सर्वराज": 4447,
    "सर्वायु": 4448,
    "स्मान्न</M>": 4449,
    "ह्यो</M>": 4450,
    "कारैः": 4451,
    "क्य</M>": 4452,
    "ग्नो</M>": 4453,
    "घ्ना": 4454,
    "ट्प": 4455,
    "ड्वि": 4456,
    "तदो": 4457,
    "तप्यत</M>": 4458,
    "त्वदर्शि": 4459,
    "द्मो": 4460,
    "द्ये</M>": 4461,
    "धनं": 4462,
    "धनमि": 4463,
    "धारा</M>": 4464,
    "धारेण</M>": 4465,
    "ध्येन</M>": 4466,
    "नार्थ": 4467,
    "निह</M>": 4468,
    "न्त्वि": 4469,
    "न्मनो": 4470,
    "न्स</M>": 4471,
    "पुरुषै": 4472,
    "प्न": 4473,
    "प्रावे": 4474,
    "प्से": 4475,
    "ब्राह्म</M>": 4476,
    "मनु</M>": 4477,
    "मने": 4478,
    "मानम": 4479,
    "मानानां</M>": 4480,
    "म्नो": 4481,
    "यमी": 4482,
    "यमै": 4483,
    "यशि": 4484,
    "य्ये": 4485,
    "र्गति": 4486,
    "र्झ": 4487,
    "र्धनु": 4488,
    "ल्पै": 4489,
    "ल्ये": 4490,
    "वन्तोऽ": 4491,
    "वर्ण</M>": 4492,
    "वर्णेन</M>": 4493,
    "वर्तमानो</M>": 4494,
    "वासा</M>": 4495,
    "वेदान": 4496,
    "शीं": 4497,
    "श्वासं</M>": 4498,
    "श्वासि": 4499,
    "ष्का": 4500,
    "ष्वै": 4501,
    "सनात्</M>": 4502,
    "सुखै": 4503,
    "स्ख": 4504,
    "स्त्रा</M>": 4505,
    "स्त्रिं": 4506,
    "स्यम": 4507,
    "एवै": 4508,
    "कराः</M>": 4509,
    "कामैः": 4510,
    "कृत्ये": 4511,
    "क्रमं</M>": 4512,
    "ग्धो</M>": 4513,
    "चरो</M>": 4514,
    "च्यो</M>": 4515,
    "जन्यां</M>": 4516,
    "ज्यत</M>": 4517,
    "ञ्जय": 4518,
    "ण्ठि": 4519,
    "तमिति</M>": 4520,
    "त्क्रु": 4521,
    "त्क्ष": 4522,
    "त्तः</M>": 4523,
    "त्यमे": 4524,
    "त्स्ये": 4525,
    "थ्य": 4526,
    "दशे</M>": 4527,
    "दान्तः</M>": 4528,
    "द्रान्</M>": 4529,
    "द्विजैः": 4530,
    "धन्वनः</M>": 4531,
    "ध्यमा": 4532,
    "नागुरु": 4533,
    "नामभि": 4534,
    "न्तेषु</M>": 4535,
    "न्त्रि": 4536,
    "न्धारे</M>": 4537,
    "न्धार्या</M>": 4538,
    "न्नगे": 4539,
    "न्यथा": 4540,
    "पञ्चे": 4541,
    "पालः</M>": 4542,
    "प्तिं</M>": 4543,
    "प्यै": 4544,
    "प्सुः": 4545,
    "ब्दम": 4546,
    "ब्वा</M>": 4547,
    "भवना": 4548,
    "भवन्त्यु": 4549,
    "भारा": 4550,
    "यदै": 4551,
    "र्क</M>": 4552,
    "र्जी": 4553,
    "र्भविष्यति</M>": 4554,
    "र्भवेत्</M>": 4555,
    "र्मनो": 4556,
    "वनगो": 4557,
    "वर्षि": 4558,
    "वानाम्</M>": 4559,
    "विष्ठि": 4560,
    "व्यद्र": 4561,
    "श्यै": 4562,
    "श्वरे</M>": 4563,
    "श्वास</M>": 4564,
    "समाना": 4565,
    "समै": 4566,
    "सम्प्रति": 4567,
    "स्कृताः</M>": 4568,
    "स्त्यश्वरथ": 4569,
    "स्त्वदी": 4570,
    "स्वनाम्</M>": 4571,
    "स्वरा": 4572,
    "हूं": 4573,
    "ह्यमा": 4574,
    "कथ्य": 4575,
    "कर्क": 4576,
    "कर्णे": 4577,
    "कृतौ</M>": 4578,
    "क्तेषु</M>": 4579,
    "ग्नाः</M>": 4580,
    "ग्र</M>": 4581,
    "चर्यं</M>": 4582,
    "च्छ्रा": 4583,
    "जनै": 4584,
    "ज्ञैः": 4585,
    "टैः": 4586,
    "डः": 4587,
    "ण्यै": 4588,
    "ततश्च</M>": 4589,
    "तमित्</M>": 4590,
    "तापो": 4591,
    "त्त्वा</M>": 4592,
    "त्यमि": 4593,
    "त्वरः</M>": 4594,
    "त्वसं": 4595,
    "त्स्यान्</M>": 4596,
    "त्स्यो</M>": 4597,
    "देवे</M>": 4598,
    "द्गा": 4599,
    "द्भवम्</M>": 4600,
    "द्यम": 4601,
    "धर्माः": 4602,
    "ध्यान्</M>": 4603,
    "ध्योऽ": 4604,
    "नरम्</M>": 4605,
    "न्ह": 4606,
    "पती</M>": 4607,
    "परमः</M>": 4608,
    "पापि": 4609,
    "प्तमिव</M>": 4610,
    "प्तैः</M>": 4611,
    "प्रविवि": 4612,
    "प्रविष्टे": 4613,
    "प्स्यते</M>": 4614,
    "भरतस्या": 4615,
    "मन्दं</M>": 4616,
    "मन्यं</M>": 4617,
    "म्न</M>": 4618,
    "म्नेन</M>": 4619,
    "यज्ञाः": 4620,
    "य्यां</M>": 4621,
    "र्त्यः</M>": 4622,
    "र्ध्या": 4623,
    "र्नारा": 4624,
    "र्बाहु": 4625,
    "र्भं": 4626,
    "र्भः": 4627,
    "र्यज्ञै": 4628,
    "र्वरा": 4629,
    "र्वायु": 4630,
    "ल्यात्</M>": 4631,
    "ल्योऽ": 4632,
    "वनग": 4633,
    "वनाः</M>": 4634,
    "वरेण</M>": 4635,
    "वर्ता": 4636,
    "वस्तु": 4637,
    "विक्रमे</M>": 4638,
    "विक्रमैः": 4639,
    "वेदम": 4640,
    "श्च्य": 4641,
    "श्यः</M>": 4642,
    "श्रीः": 4643,
    "श्वाः</M>": 4644,
    "ष्टी": 4645,
    "सत्यमा": 4646,
    "समौ</M>": 4647,
    "सर्वाना": 4648,
    "सर्वानु": 4649,
    "स्तरं</M>": 4650,
    "स्तस्या</M>": 4651,
    "स्त्वद": 4652,
    "स्राव</M>": 4653,
    "करौ": 4654,
    "कामु": 4655,
    "कारम": 4656,
    "कार्यमि": 4657,
    "कृत्स्न": 4658,
    "क्त्य": 4659,
    "क्रमौ</M>": 4660,
    "क्लृ": 4661,
    "ख्यां</M>": 4662,
    "ख्यैः": 4663,
    "ग्भा": 4664,
    "ग्रामो</M>": 4665,
    "घौ": 4666,
    "जनौ": 4667,
    "जयमा": 4668,
    "ज्यां</M>": 4669,
    "ज्रम": 4670,
    "तदृ": 4671,
    "त्थं</M>": 4672,
    "त्र्या</M>": 4673,
    "त्वानु": 4674,
    "त्वारो</M>": 4675,
    "त्सां</M>": 4676,
    "दान्तो</M>": 4677,
    "देवदत्</M>": 4678,
    "देवदेवस्य</M>": 4679,
    "देवनि": 4680,
    "द्यमानः</M>": 4681,
    "द्रोणौ": 4682,
    "धार्य</M>": 4683,
    "ध्मौ</M>": 4684,
    "नमू": 4685,
    "नार्य": 4686,
    "न्तो": 4687,
    "न्त्रं</M>": 4688,
    "न्मनु": 4689,
    "पर्ये": 4690,
    "पूर्वो": 4691,
    "प्ने</M>": 4692,
    "प्राजा": 4693,
    "भरतेन</M>": 4694,
    "भवन्तु</M>": 4695,
    "भवन्महा": 4696,
    "भवानि": 4697,
    "भवौ": 4698,
    "भीमा</M>": 4699,
    "मनुः": 4700,
    "मन्तम": 4701,
    "मन्त्री</M>": 4702,
    "महात्मनि</M>": 4703,
    "यश्चे": 4704,
    "रमेव</M>": 4705,
    "रूपां": 4706,
    "र्जने</M>": 4707,
    "र्भे</M>": 4708,
    "र्वन": 4709,
    "ल्यमा": 4710,
    "ल्ल</M>": 4711,
    "ळ": 4712,
    "वन्न": 4713,
    "वन्ना": 4714,
    "वसो</M>": 4715,
    "वास्ति</M>": 4716,
    "विदुरा": 4717,
    "विषी": 4718,
    "शती</M>": 4719,
    "शास्त्रे": 4720,
    "शास्त्रे</M>": 4721,
    "शोका</M>": 4722,
    "श्न": 4723,
    "श्ये</M>": 4724,
    "ष्फ": 4725,
    "सर्वर्तु": 4726,
    "सीं": 4727,
    "स्तमृ": 4728,
    "स्तस्याः</M>": 4729,
    "स्त्वरमा": 4730,
    "स्वेद": 4731,
    "ह्यद्य</M>": 4732,
    "करी": 4733,
    "क्ये": 4734,
    "ख्यो</M>": 4735,
    "गन्धी": 4736,
    "गन्धे": 4737,
    "ग्मी": 4738,
    "ग्राः</M>": 4739,
    "घ्नी": 4740,
    "चिं": 4741,
    "च्यमानं</M>": 4742,
    "ज्ञौ": 4743,
    "तता": 4744,
    "तद्व": 4745,
    "तद्वा": 4746,
    "तप्रि": 4747,
    "तमन": 4748,
    "तेज</M>": 4749,
    "त्कार": 4750,
    "त्परा": 4751,
    "त्प्रमु": 4752,
    "त्र्यं</M>": 4753,
    "त्वानां</M>": 4754,
    "दमाः": 4755,
    "देवरूपि": 4756,
    "देवान": 4757,
    "द्वच": 4758,
    "ध्यमान": 4759,
    "ध्वनि</M>": 4760,
    "नरथं</M>": 4761,
    "नागः": 4762,
    "नानार": 4763,
    "नाम्य": 4764,
    "न्त्यां</M>": 4765,
    "न्दान्</M>": 4766,
    "न्ध्य": 4767,
    "न्महात्मनः</M>": 4768,
    "पत्स्यते</M>": 4769,
    "पुरू": 4770,
    "प्तेषु</M>": 4771,
    "प्राज्ञं": 4772,
    "भवाने": 4773,
    "भविष्यं</M>": 4774,
    "म्यः</M>": 4775,
    "यमभि": 4776,
    "यश्</M>": 4777,
    "र्ज्ञा": 4778,
    "र्मन": 4779,
    "र्वनग": 4780,
    "र्वो": 4781,
    "र्श्व</M>": 4782,
    "लं": 4783,
    "वन्ती": 4784,
    "वर्जय": 4785,
    "विक्रमं</M>": 4786,
    "व्यथा</M>": 4787,
    "शरथि": 4788,
    "श्येन</M>": 4789,
    "श्वत्</M>": 4790,
    "ष्करे</M>": 4791,
    "स्कार": 4792,
    "स्तपः</M>": 4793,
    "स्तस्यां</M>": 4794,
    "स्वसा": 4795,
    "स्वसै": 4796,
    "स्वार्थ": 4797,
    "हरो</M>": 4798,
    "हर्षो": 4799,
    "ह्यत्र</M>": 4800,
    "करै": 4801,
    "कार्प": 4802,
    "ग्धः</M>": 4803,
    "ग्धे": 4804,
    "ग्रामान्</M>": 4805,
    "च्यां</M>": 4806,
    "च्याः</M>": 4807,
    "जन्तः</M>": 4808,
    "जयामा": 4809,
    "ठा": 4810,
    "णू": 4811,
    "ण्": 4812,
    "ण्णः</M>": 4813,
    "ण्मा": 4814,
    "तत्रे": 4815,
    "तप्स्यत्</M>": 4816,
    "तमाना": 4817,
    "तरूप</M>": 4818,
    "तरैः": 4819,
    "त्कर्म</M>": 4820,
    "त्मै": 4821,
    "त्सं</M>": 4822,
    "त्सू": 4823,
    "त्सो</M>": 4824,
    "दं": 4825,
    "दशं</M>": 4826,
    "देवराजो": 4827,
    "द्राव्य</M>": 4828,
    "द्वा</M>": 4829,
    "धन्विना</M>": 4830,
    "धार्य": 4831,
    "ध्यात्</M>": 4832,
    "न्तमे": 4833,
    "न्नाम</M>": 4834,
    "न्महाबाहु": 4835,
    "पाले": 4836,
    "प्तमा": 4837,
    "प्रविष्टं</M>": 4838,
    "भवद्भिः</M>": 4839,
    "भ्रे</M>": 4840,
    "म्बं": 4841,
    "यश्च": 4842,
    "युधि": 4843,
    "रं": 4844,
    "रक्षौ": 4845,
    "रथ्या": 4846,
    "रम्भः": 4847,
    "राजन्नि": 4848,
    "राज्ञि": 4849,
    "राज्यात्</M>": 4850,
    "र्दर्श": 4851,
    "र्यान्</M>": 4852,
    "र्वन्तो</M>": 4853,
    "र्विनि": 4854,
    "र्वै</M>": 4855,
    "र्श": 4856,
    "र्षेः": 4857,
    "ल्यौ</M>": 4858,
    "ल्वे": 4859,
    "वर्णः</M>": 4860,
    "वर्षभः": 4861,
    "वस्ते</M>": 4862,
    "वस्त्रं</M>": 4863,
    "वस्ये": 4864,
    "विष्टाः": 4865,
    "वीर्यम": 4866,
    "श्चर्यम": 4867,
    "श्वैः": 4868,
    "ष्णे": 4869,
    "ष्वास</M>": 4870,
    "सम्बो": 4871,
    "सर्वसत्</M>": 4872,
    "सुखः": 4873,
    "स्करा": 4874,
    "स्तमो": 4875,
    "स्तानां</M>": 4876,
    "स्थी": 4877,
    "स्पते": 4878,
    "स्पते</M>": 4879,
    "स्यमा": 4880,
    "स्यमि": 4881,
    "स्विनि</M>": 4882,
    "हरणे</M>": 4883,
    "हर्त": 4884,
    "हर्ता": 4885,
    "ह्निः": 4886,
    "कार्यस्य</M>": 4887,
    "कुलाः": 4888,
    "गन्धं</M>": 4889,
    "ग्भिः</M>": 4890,
    "ग्भ्यः</M>": 4891,
    "घि": 4892,
    "जयी": 4893,
    "ञ्जयान्</M>": 4894,
    "णोः": 4895,
    "ण्यशी": 4896,
    "ण्यश्च</M>": 4897,
    "तपू": 4898,
    "तेजनैः": 4899,
    "त्कैः": 4900,
    "त्तर": 4901,
    "त्त्वा": 4902,
    "त्ने": 4903,
    "त्यश्च</M>": 4904,
    "त्र्या": 4905,
    "त्वो</M>": 4906,
    "त्स्म": 4907,
    "त्स्याः</M>": 4908,
    "त्स्र": 4909,
    "थिः": 4910,
    "देवराजः</M>": 4911,
    "देवसङ्</M>": 4912,
    "देव्याः</M>": 4913,
    "द्यश्च</M>": 4914,
    "ध्यम": 4915,
    "नरस्य</M>": 4916,
    "न्तरः</M>": 4917,
    "न्तिः</M>": 4918,
    "न्तैः</M>": 4919,
    "न्त्यम": 4920,
    "न्दम</M>": 4921,
    "न्दृष्ट्वा</M>": 4922,
    "न्नमा": 4923,
    "पत्ति": 4924,
    "पत्न": 4925,
    "पाप्मा</M>": 4926,
    "पुरः</M>": 4927,
    "प्रक्षा": 4928,
    "प्रविशे": 4929,
    "बै": 4930,
    "ब्दान्</M>": 4931,
    "मन्त्रः</M>": 4932,
    "मन्नि": 4933,
    "मन्वित्</M>": 4934,
    "म्भे": 4935,
    "म्यां</M>": 4936,
    "रक्ष्य": 4937,
    "रक्ष्यते</M>": 4938,
    "रथ्यं</M>": 4939,
    "र्छ": 4940,
    "र्तम": 4941,
    "र्ती</M>": 4942,
    "र्दुरा": 4943,
    "र्दृष्ट्वा</M>": 4944,
    "र्ध्वरे": 4945,
    "र्भव</M>": 4946,
    "र्श</M>": 4947,
    "लक्ष्य": 4948,
    "ल्पैः": 4949,
    "वनमु": 4950,
    "वनु": 4951,
    "वन्तम": 4952,
    "वरम": 4953,
    "वसङ्</M>": 4954,
    "वसो": 4955,
    "वस्त्रा</M>": 4956,
    "वार्थ": 4957,
    "व्यमे": 4958,
    "व्योऽ": 4959,
    "श्वर्यम": 4960,
    "ष्करि": 4961,
    "ष्ट्रम": 4962,
    "ष्पत": 4963,
    "सहस्र</M>": 4964,
    "स्तप्त": 4965,
    "स्तप्तं</M>": 4966,
    "स्त्यं</M>": 4967,
    "स्त्रः</M>": 4968,
    "स्यान्</M>": 4969,
    "एवे": 4970,
    "करू": 4971,
    "करेण</M>": 4972,
    "केशे": 4973,
    "क्से": 4974,
    "ग्भू": 4975,
    "ग्रामः</M>": 4976,
    "घ्रान्</M>": 4977,
    "ङ्को</M>": 4978,
    "चरो": 4979,
    "ज्रे": 4980,
    "झ्या</M>": 4981,
    "ञ्ची": 4982,
    "तप्ता": 4983,
    "त्तिष्ठ": 4984,
    "त्तो</M>": 4985,
    "त्नात्</M>": 4986,
    "त्मन्ये": 4987,
    "त्महि": 4988,
    "त्यैः": 4989,
    "त्वरा": 4990,
    "द्धे</M>": 4991,
    "द्ध्य": 4992,
    "द्भ्या": 4993,
    "द्मानि</M>": 4994,
    "द्विषा": 4995,
    "धनम</M>": 4996,
    "धन्ते</M>": 4997,
    "धर्म्यं</M>": 4998,
    "ध्मा": 4999,
    "नग्नि": 5000,
    "नमन": 5001,
    "नार्था": 5002,
    "न्दश्च</M>": 5003,
    "न्द्रमि": 5004,
    "न्नैः": 5005,
    "न्यदा": 5006,
    "न्युः": 5007,
    "पर्जन्य": 5008,
    "पर्जन्य</M>": 5009,
    "पश्यै": 5010,
    "प्प": 5011,
    "प्रत्यन</M>": 5012,
    "ब्जा": 5013,
    "ब्रा": 5014,
    "मन्त्रै": 5015,
    "मन्त्रो": 5016,
    "मन्यत्</M>": 5017,
    "महर्षिः": 5018,
    "महात्मान": 5019,
    "में": 5020,
    "म्ने</M>": 5021,
    "म्बला": 5022,
    "यमाने</M>": 5023,
    "रथेः": 5024,
    "रमिव</M>": 5025,
    "राजन्ने": 5026,
    "रूपै": 5027,
    "र्खा": 5028,
    "र्गतः</M>": 5029,
    "र्जनाः</M>": 5030,
    "र्धर्मा": 5031,
    "र्नग": 5032,
    "र्यत्</M>": 5033,
    "र्लक्ष्म": 5034,
    "र्वचो": 5035,
    "र्वर्ण्यस्य</M>": 5036,
    "र्वासु": 5037,
    "र्हर": 5038,
    "लक्ष्म्या</M>": 5039,
    "वद्भिः</M>": 5040,
    "वनमि": 5041,
    "वर्तो</M>": 5042,
    "वर्धन</M>": 5043,
    "वर्धनाः</M>": 5044,
    "वस्तुं</M>": 5045,
    "वाँ": 5046,
    "वाहु": 5047,
    "वीर्यो": 5048,
    "वेदानां</M>": 5049,
    "शर</M>": 5050,
    "शिखि": 5051,
    "श्ची": 5052,
    "श्यो": 5053,
    "श्यो</M>": 5054,
    "श्वासः</M>": 5055,
    "ष्कृत": 5056,
    "ष्ट्य": 5057,
    "ष्पिताः</M>": 5058,
    "ष्पितान्</M>": 5059,
    "ष्वस": 5060,
    "समान्</M>": 5061,
    "सम्पे": 5062,
    "सर्वस": 5063,
    "स्पर्शः</M>": 5064,
    "स्मिं": 5065,
    "स्मो</M>": 5066,
    "स्रा</M>": 5067,
    "स्वस्री": 5068,
    "ह्याः</M>": 5069,
    "ह्वः</M>": 5070,
    "कारे": 5071,
    "कार्णा": 5072,
    "कृतमे": 5073,
    "क्योऽ": 5074,
    "क्रमु": 5075,
    "क्रमैः": 5076,
    "गन्धा</M>": 5077,
    "ग्रैः": 5078,
    "ग्व": 5079,
    "ङ्खाः": 5080,
    "चतुः": 5081,
    "जन्तू": 5082,
    "जन्तो</M>": 5083,
    "ज्वराः</M>": 5084,
    "ञ्छू": 5085,
    "ढां": 5086,
    "ण्यमु": 5087,
    "तप्त</M>": 5088,
    "तप्स्य": 5089,
    "त्वः</M>": 5090,
    "त्वनि": 5091,
    "त्वरम्</M>": 5092,
    "त्वाः</M>": 5093,
    "त्वारः</M>": 5094,
    "त्सै": 5095,
    "दमो</M>": 5096,
    "दानमनु": 5097,
    "दानि": 5098,
    "दान्ता</M>": 5099,
    "धनमा": 5100,
    "ध्यमाने": 5101,
    "ध्वस्ता</M>": 5102,
    "नर्जु": 5103,
    "नर्ह": 5104,
    "नाग्र": 5105,
    "नाराज": 5106,
    "न्यमु": 5107,
    "न्वा": 5108,
    "पराम्</M>": 5109,
    "पर्णः</M>": 5110,
    "पापै": 5111,
    "पुरावृत्</M>": 5112,
    "प्तमे": 5113,
    "प्ति</M>": 5114,
    "प्त्वा</M>": 5115,
    "भगा": 5116,
    "भरतर्षभः": 5117,
    "भवे</M>": 5118,
    "मन्वे": 5119,
    "मानैः": 5120,
    "मान्मा": 5121,
    "म्पते</M>": 5122,
    "म्भं": 5123,
    "म्राक्षः</M>": 5124,
    "म्ला": 5125,
    "यमानो": 5126,
    "रमभि": 5127,
    "रमान": 5128,
    "रमानु": 5129,
    "र्जयामास</M>": 5130,
    "र्द्वन्द्वो</M>": 5131,
    "र्धनञ्</M>": 5132,
    "र्धार्तरा": 5133,
    "र्नी": 5134,
    "र्मान": 5135,
    "र्यज्ञ": 5136,
    "र्यदि</M>": 5137,
    "र्वेद</M>": 5138,
    "र्हाः": 5139,
    "ल्याः</M>": 5140,
    "वदत्</M>": 5141,
    "वर्जयित्वा</M>": 5142,
    "वर्णे</M>": 5143,
    "वर्तमानः</M>": 5144,
    "वसोः": 5145,
    "वानाम": 5146,
    "वार्य": 5147,
    "वाही": 5148,
    "वाहे</M>": 5149,
    "विक्रमौ</M>": 5150,
    "विक्रि": 5151,
    "विष्णो</M>": 5152,
    "वैश्वानर": 5153,
    "व्यश्च</M>": 5154,
    "शतम": 5155,
    "श्वर्य": 5156,
    "षेः": 5157,
    "ष्करा": 5158,
    "ष्ट्रि": 5159,
    "ष्ठै": 5160,
    "ष्प्रे": 5161,
    "सत्या</M>": 5162,
    "सम्रा": 5163,
    "सर्वदे": 5164,
    "सर्वार्थ": 5165,
    "सहस्राक्षो": 5166,
    "स्करो</M>": 5167,
    "स्तप्त्वा</M>": 5168,
    "स्तश्च</M>": 5169,
    "स्त्यत्र</M>": 5170,
    "स्वत्</M>": 5171,
    "स्वरेण</M>": 5172,
    "स्वस्था": 5173,
    "हँ": 5174,
    "हर्षं</M>": 5175,
    "ह्यमाना</M>": 5176,
    "ह्यां</M>": 5177,
    "करैः": 5178,
    "कामान": 5179,
    "कामी": 5180,
    "कामे</M>": 5181,
    "कारो": 5182,
    "कृतमा": 5183,
    "क्प्र": 5184,
    "क्रमान्</M>": 5185,
    "गन्धै": 5186,
    "ग्रम": 5187,
    "ग्रां": 5188,
    "चरै": 5189,
    "च्च": 5190,
    "जनीं": 5191,
    "जयद्</M>": 5192,
    "जयमु": 5193,
    "ज्यो</M>": 5194,
    "ज्वा</M>": 5195,
    "झु": 5196,
    "ञ्जयः</M>": 5197,
    "ठि": 5198,
    "तपुत्रो": 5199,
    "तप्रभा": 5200,
    "त्कृतम्</M>": 5201,
    "त्नः</M>": 5202,
    "त्प्रति": 5203,
    "त्रमुपा": 5204,
    "त्र्यु": 5205,
    "त्स्येन</M>": 5206,
    "थैः": 5207,
    "देवदु": 5208,
    "देवान्त": 5209,
    "द्राक्ष": 5210,
    "द्वारे</M>": 5211,
    "धार्थ": 5212,
    "ध्यमानानां</M>": 5213,
    "ध्यमाने</M>": 5214,
    "ध्यै": 5215,
    "नमान": 5216,
    "नाम्ब": 5217,
    "नारु": 5218,
    "नार्क": 5219,
    "न्महे": 5220,
    "न्मुनि": 5221,
    "पतं</M>": 5222,
    "पतद्भि": 5223,
    "पुना": 5224,
    "ब्दश्च</M>": 5225,
    "ब्धो": 5226,
    "भरते</M>": 5227,
    "भार्ये</M>": 5228,
    "भीमे</M>": 5229,
    "भ्रमा": 5230,
    "म्यु": 5231,
    "यदमे": 5232,
    "यमृ": 5233,
    "रमे</M>": 5234,
    "रम्य": 5235,
    "र्ख": 5236,
    "र्ङ्ग": 5237,
    "र्त्यते</M>": 5238,
    "र्त्या</M>": 5239,
    "र्नराधि": 5240,
    "र्लो": 5241,
    "लक्ष्या</M>": 5242,
    "वन्ने": 5243,
    "वरक्ष": 5244,
    "वरैः": 5245,
    "वानि</M>": 5246,
    "वान्ति": 5247,
    "वासो": 5248,
    "विक्रमा": 5249,
    "वीर्याः</M>": 5250,
    "वैश्याः</M>": 5251,
    "शरथे": 5252,
    "श्चिन्ता": 5253,
    "श्रमाः": 5254,
    "श्वारो": 5255,
    "ष्कं</M>": 5256,
    "ष्वनु": 5257,
    "सत्यां</M>": 5258,
    "सम्पी": 5259,
    "सम्भाष": 5260,
    "सम्भि": 5261,
    "सम्भ्रमः</M>": 5262,
    "सर्वसन्</M>": 5263,
    "सर्वान</M>": 5264,
    "सहस्राक्षः</M>": 5265,
    "सह्य": 5266,
    "साग्नि": 5267,
    "स्कृत्वा</M>": 5268,
    "स्त्रौ": 5269,
    "स्वन</M>": 5270,
    "स्वाहा</M>": 5271,
    "हाँ": 5272,
    "ह्यमानो</M>": 5273,
    "ह्यात्</M>": 5274,
    "कथ्यमानं</M>": 5275,
    "कर्णी</M>": 5276,
    "कामौ</M>": 5277,
    "कार्ण": 5278,
    "कार्यमिति</M>": 5279,
    "कुशी": 5280,
    "कृत्यो</M>": 5281,
    "कृत्स्ना": 5282,
    "क्क": 5283,
    "क्तपूर्वं</M>": 5284,
    "क्ष्यान्</M>": 5285,
    "ग्न्येन</M>": 5286,
    "ग्र्यं</M>": 5287,
    "ङ्कं</M>": 5288,
    "ङ्करः</M>": 5289,
    "च्छ्रि": 5290,
    "जनात्</M>": 5291,
    "जन्तुः</M>": 5292,
    "जन्तो": 5293,
    "जन्मनि</M>": 5294,
    "जयान्</M>": 5295,
    "ज्यमानं</M>": 5296,
    "ढ्यो</M>": 5297,
    "ण्वन्तु</M>": 5298,
    "तत्वा": 5299,
    "तपरा": 5300,
    "तपुत्र</M>": 5301,
    "तपूर्वं</M>": 5302,
    "त्तु": 5303,
    "त्तो": 5304,
    "त्त्वदर्शि": 5305,
    "त्पतिः</M>": 5306,
    "त्पते</M>": 5307,
    "त्परः</M>": 5308,
    "त्पृ": 5309,
    "त्वदर्श": 5310,
    "त्वार": 5311,
    "त्समु": 5312,
    "त्स्यं</M>": 5313,
    "दशरथं</M>": 5314,
    "दान्तं</M>": 5315,
    "दान्ता": 5316,
    "देवर्षे": 5317,
    "द्गु": 5318,
    "द्रक्ष्या": 5319,
    "द्वचः</M>": 5320,
    "द्वाक्यं</M>": 5321,
    "धार्थ</M>": 5322,
    "ध्वस्तं</M>": 5323,
    "न्तरे": 5324,
    "न्दम": 5325,
    "न्दौ</M>": 5326,
    "न्द्रमिव</M>": 5327,
    "न्द्रमु": 5328,
    "न्ध्यं</M>": 5329,
    "न्नि</M>": 5330,
    "न्प": 5331,
    "न्मनः</M>": 5332,
    "पत्रैः": 5333,
    "पर्दि": 5334,
    "पश्येत्</M>": 5335,
    "पुत्रमु": 5336,
    "पुरम": 5337,
    "पूर्वो</M>": 5338,
    "प्तर्ष": 5339,
    "प्रतिष्ठ": 5340,
    "प्रत्ये": 5341,
    "प्रम</M>": 5342,
    "प्राज्ञाः": 5343,
    "भग्नाः</M>": 5344,
    "भवन्ती": 5345,
    "भव्यं</M>": 5346,
    "मनाग": 5347,
    "मन्दः</M>": 5348,
    "मानौ</M>": 5349,
    "म्यो</M>": 5350,
    "म्राक्ष": 5351,
    "रमन्ते</M>": 5352,
    "रामृ": 5353,
    "र्जन": 5354,
    "र्णान्</M>": 5355,
    "र्णेन</M>": 5356,
    "र्णो": 5357,
    "र्द्वि": 5358,
    "र्द्विज": 5359,
    "र्ध</M>": 5360,
    "र्यमि": 5361,
    "र्युधिष्ठि": 5362,
    "र्वन्तु</M>": 5363,
    "र्वेदं</M>": 5364,
    "र्वेदे": 5365,
    "र्हो</M>": 5366,
    "लीं": 5367,
    "वनेन</M>": 5368,
    "वरमु": 5369,
    "वर्णो": 5370,
    "वानरमु": 5371,
    "वास्ते</M>": 5372,
    "वास्यां</M>": 5373,
    "वैश्यः</M>": 5374,
    "वैश्यो</M>": 5375,
    "व्यथां": 5376,
    "व्यैः": 5377,
    "शतो</M>": 5378,
    "श्चेत": 5379,
    "श्राव्य</M>": 5380,
    "श्रेष्ठौ": 5381,
    "ष्कृतः</M>": 5382,
    "ष्क्रि": 5383,
    "ष्मि": 5384,
    "सनाः</M>": 5385,
    "सम्प्री": 5386,
    "सम्मन्त्र्य</M>": 5387,
    "सम्मु": 5388,
    "सर्वदेव": 5389,
    "सहस्रै": 5390,
    "स्तप</M>": 5391,
    "स्त्र्य": 5392,
    "स्पति</M>": 5393,
    "स्पर्शो</M>": 5394,
    "स्र</M>": 5395,
    "स्वस्य</M>": 5396,
    "हिः": 5397,
    "कारणे</M>": 5398,
    "कार्षीः": 5399,
    "कृतप्रति": 5400,
    "क्तू": 5401,
    "क्व": 5402,
    "क्शि": 5403,
    "गोः": 5404,
    "ग्धाः</M>": 5405,
    "ग्रामि": 5406,
    "ग्राम्य": 5407,
    "ग्वी": 5408,
    "घ्नस्य</M>": 5409,
    "चरामि</M>": 5410,
    "चर्यां</M>": 5411,
    "चेता</M>": 5412,
    "च्छो": 5413,
    "जन्त</M>": 5414,
    "जयात्</M>": 5415,
    "ज्ज</M>": 5416,
    "ञ्जे": 5417,
    "टौ": 5418,
    "डां": 5419,
    "ड्भिः</M>": 5420,
    "ण्यमभि": 5421,
    "ततम्</M>": 5422,
    "तत्क्ष": 5423,
    "तद्भ": 5424,
    "तपुत्रा": 5425,
    "तमनो": 5426,
    "तमां</M>": 5427,
    "तरमु": 5428,
    "तॊ": 5429,
    "त्नो</M>": 5430,
    "त्योऽ": 5431,
    "त्वदृ": 5432,
    "त्सम": 5433,
    "त्समी": 5434,
    "त्स्थे": 5435,
    "दमनु": 5436,
    "दाने": 5437,
    "देवदेवः</M>": 5438,
    "देवस": 5439,
    "देवसे": 5440,
    "देवस्त</M>": 5441,
    "देवानामपि</M>": 5442,
    "देवानामिव</M>": 5443,
    "द्दी": 5444,
    "द्भवं</M>": 5445,
    "द्यान्</M>": 5446,
    "द्वृत्</M>": 5447,
    "धना</M>": 5448,
    "धार्था</M>": 5449,
    "धार्थो": 5450,
    "ध्यमं</M>": 5451,
    "ध्वनि": 5452,
    "नरि": 5453,
    "नागेन</M>": 5454,
    "नानामृ": 5455,
    "नामा</M>": 5456,
    "न्तमभि": 5457,
    "न्निश्</M>": 5458,
    "न्निस्</M>": 5459,
    "न्ब": 5460,
    "न्बा": 5461,
    "न्मन्त्र": 5462,
    "न्मन्य": 5463,
    "न्मा</M>": 5464,
    "न्यमाना</M>": 5465,
    "न्यौ</M>": 5466,
    "पत्न्या</M>": 5467,
    "परावर": 5468,
    "पर्ण</M>": 5469,
    "पर्णं</M>": 5470,
    "पर्वसु</M>": 5471,
    "पर्वा": 5472,
    "पिताः</M>": 5473,
    "पूर्वै": 5474,
    "प्तमं</M>": 5475,
    "प्तश्च</M>": 5476,
    "प्यम": 5477,
    "प्यमाना": 5478,
    "प्रस्य</M>": 5479,
    "प्रावर्त": 5480,
    "प्सन्</M>": 5481,
    "ब्दो": 5482,
    "भरतर्षभाः": 5483,
    "भिं": 5484,
    "मन्तरि": 5485,
    "मन्त्र</M>": 5486,
    "माँ": 5487,
    "म्परा": 5488,
    "म्भः": 5489,
    "म्यो": 5490,
    "यज्ञैः": 5491,
    "यद्भि": 5492,
    "यमे</M>": 5493,
    "यम्भू": 5494,
    "रमा</M>": 5495,
    "रम्ब": 5496,
    "रामि": 5497,
    "र्जयत्</M>": 5498,
    "र्द्</M>": 5499,
    "र्द्विजा": 5500,
    "र्निह": 5501,
    "र्पः</M>": 5502,
    "र्पिताः</M>": 5503,
    "र्वसे": 5504,
    "र्वास": 5505,
    "र्विधि": 5506,
    "र्षों": 5507,
    "ल्के": 5508,
    "वनमे": 5509,
    "वन्त्य": 5510,
    "वर्गो": 5511,
    "वर्तमानं</M>": 5512,
    "वर्षी": 5513,
    "वसृ": 5514,
    "वासाः": 5515,
    "वैशम्</M>": 5516,
    "व्यान्</M>": 5517,
    "शत्रोः": 5518,
    "शरम्</M>": 5519,
    "श्वरस्य</M>": 5520,
    "श्वरूप": 5521,
    "ष्णुः": 5522,
    "ष्म</M>": 5523,
    "ष्योऽ": 5524,
    "समन्तपञ्च": 5525,
    "सम्पृ": 5526,
    "सर्वराक्ष": 5527,
    "साधुः": 5528,
    "स्तदु": 5529,
    "स्तिष्ठे": 5530,
    "स्तौ": 5531,
    "स्त्रो": 5532,
    "स्त्वनु": 5533,
    "स्मत्</M>": 5534,
    "स्येन</M>": 5535,
    "स्वदे": 5536,
    "स्वसा</M>": 5537,
    "स्वाहा": 5538,
    "ह्वानो</M>": 5539,
    "उपर्यु": 5540,
    "एवम्</M>": 5541,
    "कारां": 5542,
    "क्ष्यां</M>": 5543,
    "ग्धु": 5544,
    "ग्न्यः</M>": 5545,
    "ग्न्या": 5546,
    "घ्रमि": 5547,
    "जयम": 5548,
    "जयाः</M>": 5549,
    "जयोऽ": 5550,
    "ज्जन्त</M>": 5551,
    "ज्जय": 5552,
    "ज्जीवि": 5553,
    "ञ्जना": 5554,
    "टै": 5555,
    "ठं": 5556,
    "ण्डु": 5557,
    "ण्णा": 5558,
    "ण्यैः": 5559,
    "ण्यो": 5560,
    "तता</M>": 5561,
    "तत्कर्म</M>": 5562,
    "तदी": 5563,
    "तपतां</M>": 5564,
    "तपु": 5565,
    "तरस्य</M>": 5566,
    "तराज": 5567,
    "तर्पि": 5568,
    "तापितृ": 5569,
    "तिष्ठो": 5570,
    "त्का": 5571,
    "त्के": 5572,
    "त्तमः</M>": 5573,
    "त्तु</M>": 5574,
    "त्समा": 5575,
    "त्स्यः</M>": 5576,
    "त्स्यस्य</M>": 5577,
    "दमिति</M>": 5578,
    "दमृ": 5579,
    "दशरथे": 5580,
    "दशो": 5581,
    "दश्चा": 5582,
    "देवराजे": 5583,
    "देवौ": 5584,
    "द्यमानं</M>": 5585,
    "द्राम": 5586,
    "धर्म्य</M>": 5587,
    "धार्था": 5588,
    "धार्यते</M>": 5589,
    "ध्मुः": 5590,
    "ध्यमः</M>": 5591,
    "न्तप्र": 5592,
    "न्तर्ग": 5593,
    "न्दत्</M>": 5594,
    "न्द्रौ": 5595,
    "न्धार": 5596,
    "न्नगैः": 5597,
    "न्नमिव</M>": 5598,
    "न्यू": 5599,
    "पतो</M>": 5600,
    "पुत्री": 5601,
    "पुनर</M>": 5602,
    "पुनरि": 5603,
    "प्तरा": 5604,
    "प्तिः</M>": 5605,
    "प्तो": 5606,
    "प्ना": 5607,
    "प्यमाना</M>": 5608,
    "प्रभां": 5609,
    "प्रभाषि": 5610,
    "प्राज्ञे": 5611,
    "प्रे</M>": 5612,
    "ब्दि": 5613,
    "भार्यो</M>": 5614,
    "मन्दो</M>": 5615,
    "मन्यो</M>": 5616,
    "मानमा": 5617,
    "मान्य": 5618,
    "म्नमु": 5619,
    "म्राक्षो": 5620,
    "यमपि</M>": 5621,
    "रक्ष्या</M>": 5622,
    "राज्यमि": 5623,
    "र्गृह्य</M>": 5624,
    "र्जयित्वा</M>": 5625,
    "र्तोऽ": 5626,
    "र्ध्वदे": 5627,
    "र्बले": 5628,
    "र्भवन्ति</M>": 5629,
    "र्महात्मानं</M>": 5630,
    "र्विना": 5631,
    "र्वेदा": 5632,
    "ल्वं</M>": 5633,
    "वर्गं</M>": 5634,
    "वानरम्</M>": 5635,
    "वारणे</M>": 5636,
    "वास्तथा</M>": 5637,
    "वीर्यमा": 5638,
    "वेद्मि</M>": 5639,
    "वैश्या</M>": 5640,
    "शत्रो</M>": 5641,
    "शत्रौ": 5642,
    "श्यामा</M>": 5643,
    "श्रमान्</M>": 5644,
    "श्वस्त": 5645,
    "ष्कृति": 5646,
    "ष्ट्वे": 5647,
    "ष्वास": 5648,
    "सत्यः</M>": 5649,
    "सत्यो</M>": 5650,
    "सर्वम्</M>": 5651,
    "स्करो": 5652,
    "स्तमे": 5653,
    "स्तरे</M>": 5654,
    "स्पती": 5655,
    "स्फ": 5656,
    "स्वर्भा": 5657,
    "स्वसु": 5658,
    "ह्यमाना": 5659,
    "उपतिष्ठ": 5660,
    "एवो": 5661,
    "कर्षे": 5662,
    "क्षीं": 5663,
    "क्ष्यो</M>": 5664,
    "गन्धो</M>": 5665,
    "ङ्को": 5666,
    "ङ्गमि": 5667,
    "ङ्मन": 5668,
    "चराम्य": 5669,
    "चरौ": 5670,
    "जयश्चैव</M>": 5671,
    "ज्जनः</M>": 5672,
    "ज्जना": 5673,
    "ज्याः</M>": 5674,
    "ज्री</M>": 5675,
    "ज्वरे": 5676,
    "ञ्छा": 5677,
    "टां": 5678,
    "डै": 5679,
    "ड्गी": 5680,
    "णीः": 5681,
    "ण्ढ": 5682,
    "ण्यमि": 5683,
    "तद्वद्</M>": 5684,
    "तपति": 5685,
    "तमनि": 5686,
    "त्त्वार्थ": 5687,
    "त्त्वे": 5688,
    "त्वद्</M>": 5689,
    "त्से</M>": 5690,
    "दमे</M>": 5691,
    "दानमु": 5692,
    "दान्ताः</M>": 5693,
    "देवना</M>": 5694,
    "द्राक्षं</M>": 5695,
    "द्राव्यमा": 5696,
    "धनात्</M>": 5697,
    "धारो</M>": 5698,
    "ध्मु": 5699,
    "ध्येत्</M>": 5700,
    "नानारूपा": 5701,
    "नामनै": 5702,
    "नाम्ना": 5703,
    "नार्थो": 5704,
    "निही": 5705,
    "न्काले</M>": 5706,
    "न्तः": 5707,
    "न्तमन": 5708,
    "न्तृ": 5709,
    "न्द्रम्</M>": 5710,
    "न्धनं</M>": 5711,
    "न्धनैः": 5712,
    "न्धारी": 5713,
    "न्नमू": 5714,
    "न्नराधि": 5715,
    "न्नी": 5716,
    "न्वै</M>": 5717,
    "पञ्चै": 5718,
    "पत्ये</M>": 5719,
    "पश्यद": 5720,
    "पाण्डुः": 5721,
    "पोः": 5722,
    "प्तमु": 5723,
    "प्नो</M>": 5724,
    "प्रविष्टा": 5725,
    "प्स्ये</M>": 5726,
    "ब्द</M>": 5727,
    "भग्ने": 5728,
    "भवन्त्य": 5729,
    "भुं": 5730,
    "भ्र</M>": 5731,
    "भ्रं</M>": 5732,
    "मन्तश्च</M>": 5733,
    "मन्त्रो</M>": 5734,
    "महात्मनां</M>": 5735,
    "मान्या": 5736,
    "मुनिं": 5737,
    "म्यै": 5738,
    "यशा": 5739,
    "याँ": 5740,
    "य्यु": 5741,
    "राजै": 5742,
    "रूपी": 5743,
    "र्तान्</M>": 5744,
    "र्नरः</M>": 5745,
    "र्बलः</M>": 5746,
    "र्मन्त्र": 5747,
    "र्मानु": 5748,
    "र्यै": 5749,
    "र्वदान": 5750,
    "र्वन्त</M>": 5751,
    "र्वसि": 5752,
    "लक्ष्म</M>": 5753,
    "लक्ष्यं</M>": 5754,
    "वन्ती</M>": 5755,
    "वर्जनी": 5756,
    "वर्णां</M>": 5757,
    "वर्तमाना": 5758,
    "वसना": 5759,
    "वसै": 5760,
    "वस्था</M>": 5761,
    "व्यन्</M>": 5762,
    "शतमा": 5763,
    "शतो": 5764,
    "शर्या": 5765,
    "शोके": 5766,
    "श्छे": 5767,
    "श्लक्ष्णं</M>": 5768,
    "श्लोकाः</M>": 5769,
    "श्वद्</M>": 5770,
    "श्वरे": 5771,
    "श्वस्ते</M>": 5772,
    "ष्कृतिः</M>": 5773,
    "ष्पैः": 5774,
    "सत्यमेव</M>": 5775,
    "सत्यस्य</M>": 5776,
    "सर्वदै": 5777,
    "सर्वानि": 5778,
    "सह्यं</M>": 5779,
    "सुं": 5780,
    "स्कं</M>": 5781,
    "स्करे</M>": 5782,
    "स्तरि": 5783,
    "स्त्रस्य</M>": 5784,
    "स्थ्यं</M>": 5785,
    "स्प्र": 5786,
    "स्फू": 5787,
    "स्रम": 5788,
    "स्वने</M>": 5789,
    "स्वर्गः": 5790,
    "ह्म</M>": 5791,
    "ह्यः</M>": 5792,
    "करणे</M>": 5793,
    "कर्षा": 5794,
    "कार्यमे": 5795,
    "क्त्वे": 5796,
    "क्वं</M>": 5797,
    "क्श": 5798,
    "क्ष्णान्</M>": 5799,
    "ख्यु": 5800,
    "घ्नेन</M>": 5801,
    "ङ्की": 5802,
    "ङ्कुश": 5803,
    "च्छ्रे": 5804,
    "च्यत</M>": 5805,
    "छेः": 5806,
    "छ्रेण</M>": 5807,
    "जन्यं</M>": 5808,
    "जीविनाम्</M>": 5809,
    "ज्जनम्</M>": 5810,
    "ज्येन</M>": 5811,
    "ञ्जयाः</M>": 5812,
    "ञ्त्</M>": 5813,
    "णुं": 5814,
    "ण्ठो": 5815,
    "ततेज": 5816,
    "तदान्यो": 5817,
    "तद्ग": 5818,
    "तद्वी": 5819,
    "तपरि": 5820,
    "तपि": 5821,
    "तपुत्रे</M>": 5822,
    "तप्ये": 5823,
    "तमानस्य</M>": 5824,
    "तमानि": 5825,
    "तापः</M>": 5826,
    "त्कारं</M>": 5827,
    "त्तिष्ठो": 5828,
    "त्नु": 5829,
    "त्पु": 5830,
    "त्प्री": 5831,
    "त्मे": 5832,
    "त्यमाना": 5833,
    "त्राव": 5834,
    "त्रावरु": 5835,
    "त्वान्न</M>": 5836,
    "त्समो</M>": 5837,
    "त्स्या</M>": 5838,
    "थिं": 5839,
    "दम्ब": 5840,
    "दानै": 5841,
    "देवानाम": 5842,
    "द्धनि": 5843,
    "द्धि</M>": 5844,
    "द्रावि": 5845,
    "द्री</M>": 5846,
    "द्विजं</M>": 5847,
    "धनुा": 5848,
    "धनौ</M>": 5849,
    "धारी</M>": 5850,
    "ध्वनिः": 5851,
    "ध्वसाधु": 5852,
    "नागौ": 5853,
    "नार्थे": 5854,
    "न्ट्रै": 5855,
    "न्तरम": 5856,
    "न्तर्द": 5857,
    "न्द्रैः": 5858,
    "न्धार्या": 5859,
    "न्ध्री</M>": 5860,
    "न्नमु": 5861,
    "न्नु</M>": 5862,
    "न्यमाना": 5863,
    "पत्या</M>": 5864,
    "पत्रै": 5865,
    "पराम": 5866,
    "पर्जन्यो</M>": 5867,
    "पूर्वाह्ने</M>": 5868,
    "प्यमा": 5869,
    "प्रविष्टौ": 5870,
    "प्रावा": 5871,
    "ब्रह्मन्न": 5872,
    "भर्त्स": 5873,
    "भविष्यत्</M>": 5874,
    "भीः": 5875,
    "भ्या</M>": 5876,
    "भ्रमु": 5877,
    "मनः": 5878,
    "मन्त्रेण</M>": 5879,
    "म्पां": 5880,
    "म्भु": 5881,
    "येः": 5882,
    "य्ये</M>": 5883,
    "रमाः": 5884,
    "राज्यमा": 5885,
    "रामि</M>": 5886,
    "रावान": 5887,
    "रीं": 5888,
    "रूं": 5889,
    "रूप्य": 5890,
    "र्जनम्</M>": 5891,
    "र्दान": 5892,
    "र्नार": 5893,
    "र्बभूव</M>": 5894,
    "र्भगवान्</M>": 5895,
    "र्महाबा": 5896,
    "र्महो": 5897,
    "र्वर्थं</M>": 5898,
    "र्वासा</M>": 5899,
    "र्वो</M>": 5900,
    "र्षुः": 5901,
    "र्हे</M>": 5902,
    "ल्यो": 5903,
    "ल्लोके": 5904,
    "ल्वि": 5905,
    "वनौँ": 5906,
    "वन्येन</M>": 5907,
    "वरस्य</M>": 5908,
    "वर्जु": 5909,
    "वसं": 5910,
    "वस्वान्</M>": 5911,
    "वानरो</M>": 5912,
    "वानिह</M>": 5913,
    "वासै": 5914,
    "विष्टौ": 5915,
    "व्यदी": 5916,
    "व्यशा": 5917,
    "शिखी": 5918,
    "शिखैः": 5919,
    "श्चरा": 5920,
    "श्यां</M>": 5921,
    "श्यामा": 5922,
    "श्वरूपो": 5923,
    "ष्करः</M>": 5924,
    "ष्यम": 5925,
    "सत्यशी": 5926,
    "सहा</M>": 5927,
    "सहौ": 5928,
    "स्कृता</M>": 5929,
    "स्ततोऽ": 5930,
    "स्तत्रा": 5931,
    "स्त्ये": 5932,
    "स्परम": 5933,
    "स्वरा</M>": 5934,
    "हरे</M>": 5935,
    "ह्वरे</M>": 5936,
    "ा": 5937,
    "कार्यमा": 5938,
    "कृतेऽ": 5939,
    "क्यस्य</M>": 5940,
    "क्रोधो": 5941,
    "क्वा": 5942,
    "क्ष्याः</M>": 5943,
    "ग्धै": 5944,
    "ग्नेः": 5945,
    "ग्रथि": 5946,
    "ग्रम्</M>": 5947,
    "ग्र्यः</M>": 5948,
    "ङ्कर": 5949,
    "ङ्कामभि": 5950,
    "ङ्कार": 5951,
    "ङ्घः": 5952,
    "चरस्य</M>": 5953,
    "चरी</M>": 5954,
    "चर्ये</M>": 5955,
    "चिन्तां</M>": 5956,
    "च्चैव</M>": 5957,
    "जनमु": 5958,
    "जयद्रथं</M>": 5959,
    "ज्ये</M>": 5960,
    "ज्र</M>": 5961,
    "ज्वानम": 5962,
    "टिं": 5963,
    "ट्टै": 5964,
    "ठ्यते</M>": 5965,
    "डू": 5966,
    "ड्गु": 5967,
    "ढ्यं</M>": 5968,
    "ण्डां": 5969,
    "ततिः</M>": 5970,
    "तत्प्र": 5971,
    "तदानीं": 5972,
    "तदेव": 5973,
    "तपे": 5974,
    "तमपि</M>": 5975,
    "त्काल": 5976,
    "त्तद": 5977,
    "त्तोऽ": 5978,
    "त्मानमु": 5979,
    "त्यते</M>": 5980,
    "त्रिव</M>": 5981,
    "त्स्था": 5982,
    "दशी": 5983,
    "देवराज</M>": 5984,
    "देवानृ": 5985,
    "द्गतः</M>": 5986,
    "द्बलः</M>": 5987,
    "द्मं</M>": 5988,
    "द्यौः": 5989,
    "द्रोणे": 5990,
    "द्विः": 5991,
    "धन्या</M>": 5992,
    "धाराः</M>": 5993,
    "ध्म": 5994,
    "ध्याः</M>": 5995,
    "नरु": 5996,
    "नामनी": 5997,
    "नामिति</M>": 5998,
    "न्तरेण</M>": 5999,
    "न्दां": 6000,
    "न्दै": 6001,
    "न्धन": 6002,
    "न्ध्या": 6003,
    "न्ध्र": 6004,
    "न्यमि": 6005,
    "न्राक्ष": 6006,
    "न्समा": 6007,
    "पञ्चैव</M>": 6008,
    "पतु": 6009,
    "पत्ना": 6010,
    "पत्ये": 6011,
    "पर्णो</M>": 6012,
    "पश्यते</M>": 6013,
    "पाप्मानं</M>": 6014,
    "पुत्र्या</M>": 6015,
    "पुनर्यो": 6016,
    "पुरै": 6017,
    "पुरो</M>": 6018,
    "प्रत्यमि": 6019,
    "बलिः": 6020,
    "भवद्वि": 6021,
    "भवन्नृ": 6022,
    "भार्ये": 6023,
    "भ्यश्चा": 6024,
    "भ्यश्चैव</M>": 6025,
    "भ्रे": 6026,
    "मनाम": 6027,
    "मनेन</M>": 6028,
    "मन्ता</M>": 6029,
    "मानमि": 6030,
    "म्भू": 6031,
    "म्यमा": 6032,
    "राजन्त</M>": 6033,
    "राज्यमित्</M>": 6034,
    "रामानु": 6035,
    "रावु": 6036,
    "र्गन्धै": 6037,
    "र्गमि": 6038,
    "र्गी": 6039,
    "र्जनार्द": 6040,
    "र्टि": 6041,
    "र्थ्य": 6042,
    "र्दः</M>": 6043,
    "र्धी": 6044,
    "र्मत्</M>": 6045,
    "र्वर": 6046,
    "र्वर्थ": 6047,
    "र्षां</M>": 6048,
    "लॊ": 6049,
    "वदः</M>": 6050,
    "वनानां</M>": 6051,
    "वन्ते</M>": 6052,
    "वराक्ष": 6053,
    "वर्गा": 6054,
    "वर्जयन्</M>": 6055,
    "वर्जये": 6056,
    "वर्णै": 6057,
    "वसः</M>": 6058,
    "वसमा": 6059,
    "वस्थं</M>": 6060,
    "वानराधि": 6061,
    "वासि</M>": 6062,
    "वास्त</M>": 6063,
    "विक्रमो</M>": 6064,
    "विष</M>": 6065,
    "वेः": 6066,
    "वेद्या": 6067,
    "वैश्च</M>": 6068,
    "व्यथा": 6069,
    "व्यदक्षि": 6070,
    "शरमु": 6071,
    "शास्तु</M>": 6072,
    "शोकाः</M>": 6073,
    "श्चर्म": 6074,
    "श्चू": 6075,
    "श्यमेव</M>": 6076,
    "श्रेष्ठै": 6077,
    "श्वरो": 6078,
    "श्वसा": 6079,
    "षिं": 6080,
    "ष्के": 6081,
    "ष्यैः": 6082,
    "ष्वासे</M>": 6083,
    "ष्वासै": 6084,
    "समानो</M>": 6085,
    "सम्बभूव</M>": 6086,
    "सम्भव": 6087,
    "सम्भ्रम</M>": 6088,
    "सर्वसा": 6089,
    "स्कृत्या": 6090,
    "स्तम्भि": 6091,
    "स्तेज</M>": 6092,
    "स्त्येन</M>": 6093,
    "स्पर्शे": 6094,
    "स्मे": 6095,
    "स्यद्य</M>": 6096,
    "हरा": 6097,
    "होः": 6098,
    "ह्यमि": 6099,
    "ह्यमृ": 6100,
    "एवं": 6101,
    "करमा": 6102,
    "कर्दम": 6103,
    "कर्दमा": 6104,
    "कर्दमा</M>": 6105,
    "कर्मन्</M>": 6106,
    "कामां</M>": 6107,
    "काली": 6108,
    "कृत्ये</M>": 6109,
    "कृत्रि": 6110,
    "क्त्या": 6111,
    "क्त्वै": 6112,
    "क्रोधा</M>": 6113,
    "क्सा": 6114,
    "ग्न्यं</M>": 6115,
    "ङ्काम": 6116,
    "चेत</M>": 6117,
    "च्येत्</M>": 6118,
    "जन्यस्य</M>": 6119,
    "जयते</M>": 6120,
    "जयैः": 6121,
    "ज्यमा": 6122,
    "ज्वरो</M>": 6123,
    "ञ्चे": 6124,
    "ञ्छो": 6125,
    "ञ्जयैः": 6126,
    "ट्य": 6127,
    "ट्या</M>": 6128,
    "ठः": 6129,
    "ड्यते</M>": 6130,
    "ण्डाः": 6131,
    "ण्यान्</M>": 6132,
    "ण्र्यं</M>": 6133,
    "तति": 6134,
    "तदान": 6135,
    "तदानीम्</M>": 6136,
    "तदेवा": 6137,
    "तद्वद": 6138,
    "तपूर्व": 6139,
    "तप्तेन</M>": 6140,
    "तमानं</M>": 6141,
    "तस्मान्न</M>": 6142,
    "तस्मान्मे</M>": 6143,
    "ताँ": 6144,
    "त्कृता": 6145,
    "त्क्रम्य</M>": 6146,
    "त्तरम्</M>": 6147,
    "त्नौ": 6148,
    "त्पी": 6149,
    "त्यथा": 6150,
    "त्रावि": 6151,
    "त्वारो": 6152,
    "त्सहा": 6153,
    "त्स्न्येन</M>": 6154,
    "थुः": 6155,
    "थ्यमि": 6156,
    "दशु": 6157,
    "दशैः": 6158,
    "दश्व": 6159,
    "देवदेव</M>": 6160,
    "देवराजं</M>": 6161,
    "देवार्जु": 6162,
    "द्धृ": 6163,
    "द्धै": 6164,
    "द्न</M>": 6165,
    "द्मना</M>": 6166,
    "द्यमाने": 6167,
    "द्योऽ": 6168,
    "द्विजि": 6169,
    "धार्थः": 6170,
    "नगे": 6171,
    "नामै": 6172,
    "न्त्री": 6173,
    "न्त्वं</M>": 6174,
    "न्दानि</M>": 6175,
    "न्धना": 6176,
    "न्नरे": 6177,
    "पत्र</M>": 6178,
    "पर्जन्यः</M>": 6179,
    "पुत्रमि": 6180,
    "प्तमी": 6181,
    "प्नं</M>": 6182,
    "प्राक्षि": 6183,
    "बं": 6184,
    "बलां": 6185,
    "बल्ल": 6186,
    "ब्रह्महा</M>": 6187,
    "भर्त": 6188,
    "भवद": 6189,
    "भविष्णु": 6190,
    "भवो": 6191,
    "भीमनि": 6192,
    "भ्यमा": 6193,
    "मनोः": 6194,
    "मन्यत्र</M>": 6195,
    "महात्मनोः": 6196,
    "म्नम": 6197,
    "म्राक्षं</M>": 6198,
    "यद्वत्</M>": 6199,
    "यॊ": 6200,
    "य्याः</M>": 6201,
    "रथ्ये</M>": 6202,
    "रमपि</M>": 6203,
    "रमू": 6204,
    "रमैः": 6205,
    "राजन</M>": 6206,
    "राजनि</M>": 6207,
    "राज्यमु": 6208,
    "राम्य": 6209,
    "र्चा": 6210,
    "र्जनं</M>": 6211,
    "र्थै": 6212,
    "र्द्व": 6213,
    "र्नाग": 6214,
    "र्बलम्</M>": 6215,
    "र्मि</M>": 6216,
    "र्यदा</M>": 6217,
    "र्वारि": 6218,
    "र्वास</M>": 6219,
    "र्व्व": 6220,
    "र्श्वे": 6221,
    "र्हो": 6222,
    "लक्ष्मीः": 6223,
    "ल्कं</M>": 6224,
    "वचि": 6225,
    "वर्जनम्</M>": 6226,
    "वर्तमाना</M>": 6227,
    "वर्षभ</M>": 6228,
    "विक्रमान्</M>": 6229,
    "विष्य": 6230,
    "वेद्</M>": 6231,
    "व्यद": 6232,
    "व्राजि": 6233,
    "शत</M>": 6234,
    "शरथिः": 6235,
    "शिं": 6236,
    "श्चरः</M>": 6237,
    "श्चेतश्च</M>": 6238,
    "श्मा": 6239,
    "श्मिः": 6240,
    "श्री</M>": 6241,
    "श्वासो": 6242,
    "ष्क</M>": 6243,
    "ष्कु": 6244,
    "ष्को": 6245,
    "ष्ट्वो": 6246,
    "ष्णुं": 6247,
    "ष्यश्च</M>": 6248,
    "सम्बभू": 6249,
    "सम्भो": 6250,
    "सर्वसङ्</M>": 6251,
    "सर्वासा": 6252,
    "सर्वास्व</M>": 6253,
    "सहस्रि": 6254,
    "स्कृतं</M>": 6255,
    "स्तमः</M>": 6256,
    "स्पतिं</M>": 6257,
    "स्पर्धि": 6258,
    "स्मानु": 6259,
    "स्वदा": 6260,
    "स्वनै": 6261,
    "स्वरः</M>": 6262,
    "स्वराः</M>": 6263,
    "स्वान्य": 6264,
    "स्विनां</M>": 6265,
    "हरिं": 6266,
    "कामान</M>": 6267,
    "कामानु": 6268,
    "कालौ": 6269,
    "कुशे": 6270,
    "कृतमेव</M>": 6271,
    "क्तृ": 6272,
    "क्यज्ञो": 6273,
    "क्यम्</M>": 6274,
    "क्रोधे</M>": 6275,
    "क्ष्णा</M>": 6276,
    "खौ": 6277,
    "गौः": 6278,
    "ग्ग": 6279,
    "ग्नम": 6280,
    "ङ्गमिव</M>": 6281,
    "च्योऽ": 6282,
    "जयद्रथे": 6283,
    "ज्जं</M>": 6284,
    "ज्यम": 6285,
    "ज्यै": 6286,
    "ञ्जु": 6287,
    "ञ्जो": 6288,
    "डाः": 6289,
    "ढू": 6290,
    "ण्णं</M>": 6291,
    "तं": 6292,
    "तपाप्मा</M>": 6293,
    "तपूर्वा": 6294,
    "तमन्य": 6295,
    "तरथं</M>": 6296,
    "तराम्</M>": 6297,
    "तरै": 6298,
    "तेऽऽ": 6299,
    "त्तमि": 6300,
    "त्नानां</M>": 6301,
    "त्नो": 6302,
    "त्पत्स्य": 6303,
    "त्मनि": 6304,
    "त्रेः": 6305,
    "त्र्ये": 6306,
    "त्वनु": 6307,
    "त्स्य</M>": 6308,
    "त्स्यै": 6309,
    "थ्यै": 6310,
    "दम्भ": 6311,
    "देवर्षी": 6312,
    "देवस्या": 6313,
    "देवार्च": 6314,
    "द्धां": 6315,
    "द्यमान": 6316,
    "द्वरा</M>": 6317,
    "द्वान": 6318,
    "द्वारम": 6319,
    "द्वारे": 6320,
    "द्वारेण</M>": 6321,
    "धनमुपा": 6322,
    "धनाग": 6323,
    "धन्ति</M>": 6324,
    "धन्यं</M>": 6325,
    "धर्मान": 6326,
    "ध्यदे": 6327,
    "ध्यम</M>": 6328,
    "ध्यमाः": 6329,
    "ध्यां": 6330,
    "नमना</M>": 6331,
    "नमिति</M>": 6332,
    "नरी": 6333,
    "नामो": 6334,
    "न्क": 6335,
    "न्तानि</M>": 6336,
    "न्द्रै": 6337,
    "न्धारि": 6338,
    "न्धै": 6339,
    "न्नाग": 6340,
    "न्परि": 6341,
    "न्महात्मा</M>": 6342,
    "न्मान्</M>": 6343,
    "न्मी": 6344,
    "न्यदृ": 6345,
    "न्यमी": 6346,
    "न्यम्</M>": 6347,
    "न्यामा": 6348,
    "न्वचिन्त": 6349,
    "न्सन्</M>": 6350,
    "पत्रं</M>": 6351,
    "पत्राक्षं</M>": 6352,
    "पराजयम्</M>": 6353,
    "पालो": 6354,
    "पुत्रमे": 6355,
    "पुनर्जा": 6356,
    "पुनर्युद्</M>": 6357,
    "पुरावि": 6358,
    "पुरुषैः": 6359,
    "पूर्वदे": 6360,
    "पूर्वैः": 6361,
    "प्त्या</M>": 6362,
    "प्रामा": 6363,
    "प्सू": 6364,
    "ब्धै": 6365,
    "ब्री": 6366,
    "भरते": 6367,
    "भरि": 6368,
    "भवन्त": 6369,
    "भारः</M>": 6370,
    "भारो": 6371,
    "भार्याः</M>": 6372,
    "भ्यम": 6373,
    "भ्रम</M>": 6374,
    "भ्राजि": 6375,
    "मं": 6376,
    "मन्यू": 6377,
    "महां": 6378,
    "मानिह</M>": 6379,
    "म्नगा": 6380,
    "म्पतिः</M>": 6381,
    "म्यम": 6382,
    "यमान्</M>": 6383,
    "यशी": 6384,
    "यश्चि": 6385,
    "रम्भो": 6386,
    "राम्ब": 6387,
    "रूपौ": 6388,
    "र्गुरु": 6389,
    "र्जना": 6390,
    "र्तर": 6391,
    "र्तुं</M>": 6392,
    "र्धू": 6393,
    "र्भार": 6394,
    "र्वने</M>": 6395,
    "र्वरु": 6396,
    "र्वृद्</M>": 6397,
    "र्वेदमा": 6398,
    "लोकराव": 6399,
    "लोक्यस्य</M>": 6400,
    "ल्पाः": 6401,
    "ल्प्य": 6402,
    "ल्यान्</M>": 6403,
    "वदी": 6404,
    "वनैः": 6405,
    "वर्गे</M>": 6406,
    "वर्त्मनि</M>": 6407,
    "वसत्य": 6408,
    "वसा</M>": 6409,
    "वस्पृ": 6410,
    "वान्ति</M>": 6411,
    "वार्था": 6412,
    "वासाद्य</M>": 6413,
    "वास्तां</M>": 6414,
    "वेदै": 6415,
    "व्यमेव</M>": 6416,
    "व्राज</M>": 6417,
    "व्राजनं</M>": 6418,
    "शती": 6419,
    "शरथी": 6420,
    "शरो</M>": 6421,
    "शर्म": 6422,
    "शिखं</M>": 6423,
    "शोकार्ण": 6424,
    "श्मनः</M>": 6425,
    "श्रं</M>": 6426,
    "श्रम्य</M>": 6427,
    "श्लोकौ": 6428,
    "श्वरान्</M>": 6429,
    "श्वरी</M>": 6430,
    "ष्ट्री</M>": 6431,
    "ष्ठौ": 6432,
    "ष्येत्</M>": 6433,
    "ष्यो": 6434,
    "ष्वस्त्र": 6435,
    "समाने": 6436,
    "समिति</M>": 6437,
    "सर्वदु</M>": 6438,
    "सर्वदुश्</M>": 6439,
    "सर्वदुस्</M>": 6440,
    "सर्वस्व": 6441,
    "सर्वासां</M>": 6442,
    "स्कारो</M>": 6443,
    "स्को": 6444,
    "स्तत्त्व": 6445,
    "स्तराः</M>": 6446,
    "स्तेऽपि</M>": 6447,
    "स्त्वासी": 6448,
    "स्यौ": 6449,
    "स्वो</M>": 6450,
    "स्स्व</M>": 6451,
    "हर्म्य": 6452,
    "ह्ना</M>": 6453,
    "ह्वे": 6454,
    "कर्दम</M>": 6455,
    "कर्मै": 6456,
    "कामधु": 6457,
    "कामया</M>": 6458,
    "कार्थ": 6459,
    "कार्यमु": 6460,
    "कुरुः": 6461,
    "कुशै": 6462,
    "कृत्वे": 6463,
    "कृत्वै": 6464,
    "कृत्स्नस्य</M>": 6465,
    "कृत्स्नो</M>": 6466,
    "क्तमेव</M>": 6467,
    "क्त्रो</M>": 6468,
    "क्यमनु": 6469,
    "क्रां": 6470,
    "क्षू": 6471,
    "क्ष्णो</M>": 6472,
    "क्ष्यः</M>": 6473,
    "ख्यज्ञा": 6474,
    "ग्न्यस्य</M>": 6475,
    "ग्य</M>": 6476,
    "ग्या</M>": 6477,
    "ग्रमु": 6478,
    "ग्वा": 6479,
    "घ्रमे": 6480,
    "ङ्करम्</M>": 6481,
    "ङ्केन</M>": 6482,
    "ङ्क्ति": 6483,
    "ङ्गत्</M>": 6484,
    "चर्य": 6485,
    "च्यमानः</M>": 6486,
    "च्यो": 6487,
    "छ्य</M>": 6488,
    "ज्छ": 6489,
    "ज्जनार्द": 6490,
    "ज्जने</M>": 6491,
    "ज्जन्ते</M>": 6492,
    "ट्सु</M>": 6493,
    "णुः": 6494,
    "ण्ठी": 6495,
    "ण्णा</M>": 6496,
    "ण्णां</M>": 6497,
    "ण्यश्लोक": 6498,
    "ण्व</M>": 6499,
    "तत्स": 6500,
    "तत्समा": 6501,
    "तत्सै": 6502,
    "तद्भा": 6503,
    "तपत्रेण</M>": 6504,
    "तपी": 6505,
    "तप्तानां</M>": 6506,
    "तप्ये</M>": 6507,
    "तस्मान्ना": 6508,
    "तृ॑": 6509,
    "त्कृता</M>": 6510,
    "त्क्रा": 6511,
    "त्क्रि": 6512,
    "त्तत्</M>": 6513,
    "त्मानमेव</M>": 6514,
    "त्मानि": 6515,
    "त्मि": 6516,
    "त्यन्</M>": 6517,
    "त्यमनु": 6518,
    "त्यम्</M>": 6519,
    "त्यां": 6520,
    "त्योः</M>": 6521,
    "त्वन": 6522,
    "त्वाह": 6523,
    "थू": 6524,
    "दमो": 6525,
    "दम्पती</M>": 6526,
    "देवसत्</M>": 6527,
    "देवसहा": 6528,
    "देवानु": 6529,
    "देवैश्च</M>": 6530,
    "द्बल": 6531,
    "द्बलम्</M>": 6532,
    "द्भव": 6533,
    "द्रै": 6534,
    "द्वां": 6535,
    "द्विषः</M>": 6536,
    "धनार्थं</M>": 6537,
    "धर्मान्ते</M>": 6538,
    "धर्मी": 6539,
    "ध्यमानौ</M>": 6540,
    "ध्वर्यु": 6541,
    "नमन्व": 6542,
    "नराक्ष": 6543,
    "नर्था": 6544,
    "नामनि": 6545,
    "नार्यः</M>": 6546,
    "नार्हा": 6547,
    "नीः": 6548,
    "न्तम</M>": 6549,
    "न्थ": 6550,
    "न्धार्यु": 6551,
    "न्धुः": 6552,
    "न्ध्र</M>": 6553,
    "न्नागा": 6554,
    "न्यद्य</M>": 6555,
    "पतिष्ठे": 6556,
    "पत्राक्षी": 6557,
    "पत्स्या": 6558,
    "पापां": 6559,
    "प्ने": 6560,
    "प्यन्</M>": 6561,
    "प्यो</M>": 6562,
    "प्रौ": 6563,
    "बलक्ष": 6564,
    "ब्राह्मं</M>": 6565,
    "भरत</M>": 6566,
    "भरतर्षभा": 6567,
    "भार्यं</M>": 6568,
    "भ्रमि": 6569,
    "मन्यमानः</M>": 6570,
    "मन्व</M>": 6571,
    "मन्वि": 6572,
    "मान्ति": 6573,
    "मेः": 6574,
    "म्यश्च</M>": 6575,
    "म्यौ</M>": 6576,
    "यमानेन</M>": 6577,
    "रम्यमा": 6578,
    "रामा</M>": 6579,
    "र्का": 6580,
    "र्छा": 6581,
    "र्जय</M>": 6582,
    "र्णम्</M>": 6583,
    "र्दुः": 6584,
    "र्देवै": 6585,
    "र्धे</M>": 6586,
    "र्ध्या</M>": 6587,
    "र्बभू": 6588,
    "र्ब्रह्मन्</M>": 6589,
    "र्यद": 6590,
    "र्यैः": 6591,
    "र्लोका": 6592,
    "र्वानरै": 6593,
    "र्ही": 6594,
    "लक्ष्या": 6595,
    "लुं": 6596,
    "ल्क्य</M>": 6597,
    "ल्मु": 6598,
    "ल्यमानं</M>": 6599,
    "ल्लं</M>": 6600,
    "वन्या": 6601,
    "वर्षभ": 6602,
    "वर्षो": 6603,
    "वस्तस्य</M>": 6604,
    "वान्तरि": 6605,
    "वान्य": 6606,
    "वायुं": 6607,
    "वार्ध": 6608,
    "वास्मि</M>": 6609,
    "वास्या": 6610,
    "वाहे": 6611,
    "विविं": 6612,
    "विष्क": 6613,
    "वेद्य": 6614,
    "व्यज्ञा": 6615,
    "व्यदा": 6616,
    "व्यद्राव": 6617,
    "व्यम्</M>": 6618,
    "शतरु": 6619,
    "शताः</M>": 6620,
    "शतु": 6621,
    "शर्वरी": 6622,
    "श्चरम्</M>": 6623,
    "श्नि": 6624,
    "श्नो</M>": 6625,
    "श्यमाना": 6626,
    "श्रमि": 6627,
    "श्वनर": 6628,
    "श्वर्ये</M>": 6629,
    "श्वां": 6630,
    "श्वानं</M>": 6631,
    "ष्मा</M>": 6632,
    "ष्यत्</M>": 6633,
    "सनाग": 6634,
    "समां</M>": 6635,
    "सम्पत</M>": 6636,
    "सम्बुद्</M>": 6637,
    "सम्भवे</M>": 6638,
    "सम्भ्रमा": 6639,
    "सम्मा": 6640,
    "सहस्राक्ष</M>": 6641,
    "सहस्राक्षं</M>": 6642,
    "स्करौ": 6643,
    "स्को</M>": 6644,
    "स्तदानीम्</M>": 6645,
    "स्तमन": 6646,
    "स्तरः</M>": 6647,
    "स्त्यमृ": 6648,
    "स्त्वम्</M>": 6649,
    "स्यन्</M>": 6650,
    "स्राः</M>": 6651,
    "स्रान्</M>": 6652,
    "स्रि": 6653,
    "हरामि</M>": 6654,
    "ह्यमानः</M>": 6655,
    "कं": 6656,
    "कर्को": 6657,
    "कर्णम्</M>": 6658,
    "कर्मो": 6659,
    "कारू": 6660,
    "कार्यम्</M>": 6661,
    "कुलक्ष": 6662,
    "कुलै": 6663,
    "कृत्व</M>": 6664,
    "क्तप्र": 6665,
    "क्तमन": 6666,
    "क्तमिव</M>": 6667,
    "क्तमू": 6668,
    "क्रम्</M>": 6669,
    "ख्यम": 6670,
    "ख्यमु": 6671,
    "ग्नां</M>": 6672,
    "ग्न्यो</M>": 6673,
    "ग्रमन": 6674,
    "ग्राम्या": 6675,
    "घ्नौ</M>": 6676,
    "घ्रमेव</M>": 6677,
    "ङ्घाः": 6678,
    "चर्य</M>": 6679,
    "च्चैः": 6680,
    "च्छी": 6681,
    "च्यमाना": 6682,
    "च्यमानो</M>": 6683,
    "जन्तु</M>": 6684,
    "जयू": 6685,
    "ज्ज्यो": 6686,
    "ज्यमाना": 6687,
    "ज्यश्च</M>": 6688,
    "ज्रो": 6689,
    "ञ्चरा": 6690,
    "ञ्छी": 6691,
    "ञ्छ्रु": 6692,
    "ञ्जन्</M>": 6693,
    "ट्यां</M>": 6694,
    "ठो": 6695,
    "ड्भा": 6696,
    "ड्यमान": 6697,
    "ड्यमानः</M>": 6698,
    "ड्यमाना</M>": 6699,
    "ड्यमानो</M>": 6700,
    "ण्ठः": 6701,
    "ण्यात्</M>": 6702,
    "तत्राव": 6703,
    "तपुत्रा</M>": 6704,
    "तप्त्वा</M>": 6705,
    "तमन्त": 6706,
    "तमन्यु": 6707,
    "तरावु": 6708,
    "त्थे": 6709,
    "त्पत</M>": 6710,
    "त्परं</M>": 6711,
    "त्परम्</M>": 6712,
    "त्म्यमु": 6713,
    "त्यमुपा": 6714,
    "त्यशु": 6715,
    "त्रमपि</M>": 6716,
    "त्सं": 6717,
    "त्सर्वं</M>": 6718,
    "त्स्थौ": 6719,
    "दमं</M>": 6720,
    "दमत्</M>": 6721,
    "दमी": 6722,
    "दमेव</M>": 6723,
    "दशरा": 6724,
    "दीः": 6725,
    "देवदेवं</M>": 6726,
    "देवन": 6727,
    "देवराजा": 6728,
    "देवस्था": 6729,
    "देवानि": 6730,
    "द्गी": 6731,
    "द्यमाना": 6732,
    "द्येन</M>": 6733,
    "द्रक्ष्यति</M>": 6734,
    "धनर": 6735,
    "धन्य": 6736,
    "धर्मों": 6737,
    "ध्न</M>": 6738,
    "ध्यद": 6739,
    "ध्रा</M>": 6740,
    "ध्रो": 6741,
    "ध्वर्य": 6742,
    "नग्न": 6743,
    "नमपि</M>": 6744,
    "नार्चि": 6745,
    "न्तमनी": 6746,
    "न्तर्भू": 6747,
    "न्तुः</M>": 6748,
    "न्त्यत्र</M>": 6749,
    "न्त्यै": 6750,
    "न्द्यात्</M>": 6751,
    "न्धनः</M>": 6752,
    "न्धनात्</M>": 6753,
    "न्धा</M>": 6754,
    "न्नम्</M>": 6755,
    "न्नरा": 6756,
    "न्नर्थे": 6757,
    "न्मन्यु": 6758,
    "न्महो": 6759,
    "न्मै": 6760,
    "न्यमन्त्र": 6761,
    "पञ्चरा": 6762,
    "परमे</M>": 6763,
    "परिव</M>": 6764,
    "पाली</M>": 6765,
    "पालैः": 6766,
    "पुनरावृत्</M>": 6767,
    "पुनर्न": 6768,
    "पूर्वान्</M>": 6769,
    "पेः": 6770,
    "प्तर्षी": 6771,
    "प्यमानां</M>": 6772,
    "प्रमि": 6773,
    "प्रविशा": 6774,
    "प्स</M>": 6775,
    "भग्ने</M>": 6776,
    "भरतश्च</M>": 6777,
    "भर्तरि": 6778,
    "भवेदे": 6779,
    "भार्यस्य</M>": 6780,
    "भाषी": 6781,
    "मन्त्रे</M>": 6782,
    "मन्दाः": 6783,
    "मन्यमानो</M>": 6784,
    "मन्यां</M>": 6785,
    "मन्योः</M>": 6786,
    "मान्यश्च</M>": 6787,
    "म्यत</M>": 6788,
    "यद्वि": 6789,
    "यमाने": 6790,
    "यश्चो": 6791,
    "य्व": 6792,
    "रमत्</M>": 6793,
    "रमो": 6794,
    "रमौ": 6795,
    "रम्यान्</M>": 6796,
    "र्णस्य</M>": 6797,
    "र्तमि": 6798,
    "र्त्यां</M>": 6799,
    "र्थैः": 6800,
    "र्दशा": 6801,
    "र्दशी": 6802,
    "र्दारु": 6803,
    "र्दुर्यो": 6804,
    "र्देव</M>": 6805,
    "र्धारा": 6806,
    "र्बलि": 6807,
    "र्भर्त्स": 6808,
    "र्भवद्भि": 6809,
    "र्भवान्</M>": 6810,
    "र्भार्यां</M>": 6811,
    "र्महर्षि": 6812,
    "र्यमा</M>": 6813,
    "र्लि": 6814,
    "र्वनं</M>": 6815,
    "र्वरं</M>": 6816,
    "र्वर्ण्य": 6817,
    "र्वासा": 6818,
    "र्विदु": 6819,
    "र्वेदम": 6820,
    "र्षाः": 6821,
    "ल्ली": 6822,
    "ल्वा": 6823,
    "वद्वि": 6824,
    "वनी</M>": 6825,
    "वरमे": 6826,
    "वराज्ये": 6827,
    "वर्णैः</M>": 6828,
    "वर्त्य": 6829,
    "वसना</M>": 6830,
    "वस्क": 6831,
    "वस्यै": 6832,
    "वारं</M>": 6833,
    "वार्चि": 6834,
    "वार्पि": 6835,
    "वार्यते</M>": 6836,
    "वासोऽ": 6837,
    "वास्मा": 6838,
    "वाहाः": 6839,
    "वीर्यम्</M>": 6840,
    "वेदश्रु": 6841,
    "शरम": 6842,
    "श्चर्यमि": 6843,
    "श्चु": 6844,
    "श्यम": 6845,
    "श्वद्वि": 6846,
    "श्वर्या": 6847,
    "ष्कृते</M>": 6848,
    "ष्ट्रमु": 6849,
    "ष्ट्रै": 6850,
    "ष्यमि": 6851,
    "सम्भवं</M>": 6852,
    "सम्भवन्ति</M>": 6853,
    "सम्भवाः</M>": 6854,
    "सर्वरक्ष": 6855,
    "सर्वस्या": 6856,
    "स्कर</M>": 6857,
    "स्करे": 6858,
    "स्का": 6859,
    "स्तत्रै": 6860,
    "स्तम्ब": 6861,
    "स्ती</M>": 6862,
    "स्त्राः</M>": 6863,
    "स्त्रान्</M>": 6864,
    "स्परस्य</M>": 6865,
    "स्पा": 6866,
    "स्यैः": 6867,
    "स्रेण</M>": 6868,
    "स्वरथ": 6869,
    "स्वर्गे": 6870,
    "स्विषु</M>": 6871,
    "स्वो": 6872,
    "हराः</M>": 6873,
    "हरैः": 6874,
    "हर्य": 6875,
    "उपाल": 6876,
    "करूपा": 6877,
    "कार्चि": 6878,
    "कार्थं</M>": 6879,
    "कालम्</M>": 6880,
    "कुल्या": 6881,
    "कृत्योऽ": 6882,
    "केः": 6883,
    "क्तमहा": 6884,
    "क्तमृ": 6885,
    "क्तोऽपि</M>": 6886,
    "क्यात्</M>": 6887,
    "क्रमो</M>": 6888,
    "क्रम्या": 6889,
    "क्रामत्</M>": 6890,
    "क्रामे": 6891,
    "क्ष्मो": 6892,
    "खीं": 6893,
    "ग्द": 6894,
    "ग्दा": 6895,
    "ग्नी</M>": 6896,
    "ग्मान्</M>": 6897,
    "ग्यां</M>": 6898,
    "ग्र्य": 6899,
    "ग्र्या": 6900,
    "ग्र्या</M>": 6901,
    "ङ्कारो</M>": 6902,
    "ङ्गम्य</M>": 6903,
    "चां": 6904,
    "च्छृ": 6905,
    "च्छ्र": 6906,
    "च्छ्रो": 6907,
    "छ्री": 6908,
    "छ्वे": 6909,
    "जन्तोः": 6910,
    "जन्तौ</M>": 6911,
    "ज्जया</M>": 6912,
    "ज्यमान": 6913,
    "ज्रमु": 6914,
    "ञ्चै": 6915,
    "ञ्जू": 6916,
    "टिः": 6917,
    "टीं": 6918,
    "ट्त्रि": 6919,
    "ड्गा": 6920,
    "ड्ड्रे": 6921,
    "ढ्या</M>": 6922,
    "ततो": 6923,
    "तपता": 6924,
    "तपती</M>": 6925,
    "तप्तस्य</M>": 6926,
    "तप्तां</M>": 6927,
    "तप्रति": 6928,
    "तमनाः</M>": 6929,
    "तमानानां</M>": 6930,
    "तरथ": 6931,
    "तरूपं</M>": 6932,
    "तस्यामा": 6933,
    "ताप्य</M>": 6934,
    "त्कृत": 6935,
    "त्कृताः</M>": 6936,
    "त्को": 6937,
    "त्तरो": 6938,
    "त्ताः</M>": 6939,
    "त्त्रि": 6940,
    "त्त्वसन्</M>": 6941,
    "त्प्रभा": 6942,
    "त्फ": 6943,
    "त्मं</M>": 6944,
    "त्मन्य": 6945,
    "त्मानौ</M>": 6946,
    "त्यद्भि": 6947,
    "त्यद्य</M>": 6948,
    "त्रमिति</M>": 6949,
    "त्र्ये</M>": 6950,
    "त्वद्भ": 6951,
    "त्वरा</M>": 6952,
    "त्वरे": 6953,
    "त्वान": 6954,
    "त्सम्</M>": 6955,
    "थ्यो": 6956,
    "दम्भो": 6957,
    "दशि": 6958,
    "दानानां</M>": 6959,
    "दान्त": 6960,
    "द्गत्</M>": 6961,
    "द्धिं": 6962,
    "द्भवा</M>": 6963,
    "द्मनि": 6964,
    "द्युद्</M>": 6965,
    "द्रथः</M>": 6966,
    "द्रमभि": 6967,
    "द्रमिव</M>": 6968,
    "द्राक्षी": 6969,
    "द्विना": 6970,
    "द्वै</M>": 6971,
    "धन्</M>": 6972,
    "धन्योऽ": 6973,
    "धर्म्यम": 6974,
    "धारै": 6975,
    "ध्यमानो": 6976,
    "ध्यमि": 6977,
    "ध्यिा": 6978,
    "ध्राः</M>": 6979,
    "नगु": 6980,
    "नगृ": 6981,
    "नानाम": 6982,
    "नामन्यो": 6983,
    "नामहं</M>": 6984,
    "नार्ज": 6985,
    "नार्थः": 6986,
    "न्तानां</M>": 6987,
    "न्द्री</M>": 6988,
    "न्नरो": 6989,
    "न्पा": 6990,
    "न्प्रा": 6991,
    "न्बहु": 6992,
    "न्भ": 6993,
    "न्मनो</M>": 6994,
    "न्मानु": 6995,
    "न्वन्ति</M>": 6996,
    "न्वा</M>": 6997,
    "न्वानो</M>": 6998,
    "न्सम्</M>": 6999,
    "न्सा": 7000,
    "पत्येन</M>": 7001,
    "पर्णेन</M>": 7002,
    "पर्णो": 7003,
    "पर्वो": 7004,
    "पुत्रमी": 7005,
    "पुत्रम्</M>": 7006,
    "पुनर्ज": 7007,
    "पुनर्दो": 7008,
    "पुरमु": 7009,
    "पूर्व्या</M>": 7010,
    "प्तर्षि": 7011,
    "प्यमि": 7012,
    "प्रक्ष": 7013,
    "प्रतिष्ठां": 7014,
    "प्रमू": 7015,
    "प्रविष्टाः": 7016,
    "प्रावर": 7017,
    "प्सा": 7018,
    "प्सा</M>": 7019,
    "प्सुं": 7020,
    "ब्दमा": 7021,
    "ब्धु": 7022,
    "ब्य": 7023,
    "ब्रह्मे": 7024,
    "ब्राह्मी": 7025,
    "ब्राह्मीं": 7026,
    "ब्राह्मे</M>": 7027,
    "भगो": 7028,
    "भरे": 7029,
    "भवन": 7030,
    "भवनो": 7031,
    "भवन्त्ये": 7032,
    "मनमा": 7033,
    "मन्तर": 7034,
    "मन्त्रस्य</M>": 7035,
    "मन्दा</M>": 7036,
    "मन्दो": 7037,
    "मन्येन</M>": 7038,
    "मन्यै": 7039,
    "मर्हा": 7040,
    "महात्मानम": 7041,
    "मानमनु": 7042,
    "मानमिव</M>": 7043,
    "मानमु": 7044,
    "मान्वि": 7045,
    "म्पी": 7046,
    "म्बभूव</M>": 7047,
    "म्लु": 7048,
    "यद</M>": 7049,
    "यमानै": 7050,
    "रम्भं": 7051,
    "राजन्य": 7052,
    "राम्भ": 7053,
    "रावान्</M>": 7054,
    "र्जन्तं</M>": 7055,
    "र्जन्ति</M>": 7056,
    "र्जन्ती</M>": 7057,
    "र्णी": 7058,
    "र्णैः</M>": 7059,
    "र्त्य</M>": 7060,
    "र्त्या": 7061,
    "र्थों": 7062,
    "र्दशः</M>": 7063,
    "र्दान्तो</M>": 7064,
    "र्देवराज": 7065,
    "र्देवा</M>": 7066,
    "र्धन": 7067,
    "र्नु": 7068,
    "र्नै": 7069,
    "र्पाः": 7070,
    "र्बलो": 7071,
    "र्ब्रह्मा</M>": 7072,
    "र्भार्या</M>": 7073,
    "र्मना</M>": 7074,
    "र्महाबाहु": 7075,
    "र्ल</M>": 7076,
    "र्लक्ष": 7077,
    "र्वस": 7078,
    "र्वानर": 7079,
    "र्विष्णु": 7080,
    "र्वेदो</M>": 7081,
    "र्षभे</M>": 7082,
    "र्ष्या": 7083,
    "लक्ष्मि": 7084,
    "लेः": 7085,
    "लोकौ": 7086,
    "लोक्यम": 7087,
    "ल्पिता</M>": 7088,
    "ल्मान्</M>": 7089,
    "ल्यते</M>": 7090,
    "ल्यमु": 7091,
    "ल्वराज": 7092,
    "वचाः": 7093,
    "वनमेव</M>": 7094,
    "वनां</M>": 7095,
    "वन्तमि": 7096,
    "वन्त्यु": 7097,
    "वर्द्</M>": 7098,
    "वर्मि": 7099,
    "वसम्प": 7100,
    "वसहि": 7101,
    "वस्ता": 7102,
    "वानरेण</M>": 7103,
    "वास्तु": 7104,
    "वास्त्र": 7105,
    "विषु": 7106,
    "वैश्यस्य</M>": 7107,
    "शरथिं": 7108,
    "शर्वर्यां</M>": 7109,
    "शर्वा": 7110,
    "शास्ते</M>": 7111,
    "श्चं": 7112,
    "श्चरं</M>": 7113,
    "श्म्या": 7114,
    "श्येत्</M>": 7115,
    "श्रृ": 7116,
    "श्लोका</M>": 7117,
    "श्वरैः": 7118,
    "श्वसहस्रा": 7119,
    "श्वसृ": 7120,
    "श्वस्तं</M>": 7121,
    "श्वस्ता</M>": 7122,
    "श्वस्ये": 7123,
    "श्वासो</M>": 7124,
    "ष्कान्</M>": 7125,
    "समनि": 7126,
    "समन्यु": 7127,
    "समिव</M>": 7128,
    "सम्पश्य": 7129,
    "सम्बु": 7130,
    "सम्म</M>": 7131,
    "सम्मत्</M>": 7132,
    "सम्मृ": 7133,
    "सर्वदर्शी": 7134,
    "सर्वदेवानां</M>": 7135,
    "सर्वसिद्</M>": 7136,
    "सहस्राक्षे": 7137,
    "सुखाः": 7138,
    "सोः": 7139,
    "स्कारं</M>": 7140,
    "स्तद्वचनं</M>": 7141,
    "स्तमनु": 7142,
    "स्त्वद्वि": 7143,
    "स्पतौ</M>": 7144,
    "स्पर्शी": 7145,
    "स्महे</M>": 7146,
    "स्वराज्यं</M>": 7147,
    "स्वरान्</M>": 7148,
    "ह्ये</M>": 7149,
    "ह्रीः": 7150,
    "उपरि": 7151,
    "कर्मानु": 7152,
    "कार्यमन</M>": 7153,
    "काली</M>": 7154,
    "कुं": 7155,
    "कुलैः": 7156,
    "कृतपु": 7157,
    "कृत्यमा": 7158,
    "कृत्यै": 7159,
    "कृत्वो": 7160,
    "कृत्वो</M>": 7161,
    "क्क</M>": 7162,
    "क्तमिति</M>": 7163,
    "क्तरूप": 7164,
    "क्मा": 7165,
    "क्मी": 7166,
    "क्रा</M>": 7167,
    "क्राः</M>": 7168,
    "क्रान्</M>": 7169,
    "क्रै": 7170,
    "क्ले</M>": 7171,
    "क्ष्मः</M>": 7172,
    "क्ष्मे": 7173,
    "क्ष्यम": 7174,
    "ग्धुं": 7175,
    "ग्रमा": 7176,
    "घ्रम्</M>": 7177,
    "ङ्काः</M>": 7178,
    "ङ्खैः": 7179,
    "चेता": 7180,
    "च्चो": 7181,
    "च्छं": 7182,
    "च्यमाना</M>": 7183,
    "जनु": 7184,
    "जन्मा": 7185,
    "जन्या": 7186,
    "जयश": 7187,
    "जयशरा": 7188,
    "ज़": 7189,
    "जीविषुः": 7190,
    "ज्जनैः": 7191,
    "ज्ज्ये": 7192,
    "ज्यमाना</M>": 7193,
    "ज्यमे": 7194,
    "झं": 7195,
    "ञ्जनः</M>": 7196,
    "ट्यो</M>": 7197,
    "ड्यमानं</M>": 7198,
    "ड्यमाना": 7199,
    "ढ्या": 7200,
    "ण्यमे": 7201,
    "ण्योऽ": 7202,
    "ण्वन्ति</M>": 7203,
    "ण्वा": 7204,
    "तपति</M>": 7205,
    "तपापा": 7206,
    "तप्रत्या": 7207,
    "तमानां</M>": 7208,
    "तरूपे": 7209,
    "तर्कि": 7210,
    "त्कर्ष": 7211,
    "त्की": 7212,
    "त्कृतेऽ": 7213,
    "त्कृत्</M>": 7214,
    "त्तान्</M>": 7215,
    "त्पत्ति": 7216,
    "त्पत्स्यते</M>": 7217,
    "त्पुरा</M>": 7218,
    "त्मनै": 7219,
    "त्म्य": 7220,
    "त्यमृ": 7221,
    "त्यशो</M>": 7222,
    "त्रमे": 7223,
    "त्रोः": 7224,
    "त्र्याः</M>": 7225,
    "त्वरं</M>": 7226,
    "त्वौ": 7227,
    "त्सुख": 7228,
    "त्स्वे": 7229,
    "थ्ये": 7230,
    "दम्भं": 7231,
    "दर्शो": 7232,
    "दशाः": 7233,
    "दश्य</M>": 7234,
    "दानो</M>": 7235,
    "दान्य": 7236,
    "देवदेव": 7237,
    "देव्या": 7238,
    "द्भवैः": 7239,
    "द्भे": 7240,
    "द्यत्</M>": 7241,
    "द्यथा</M>": 7242,
    "द्यमा": 7243,
    "द्यमाना</M>": 7244,
    "द्यमानो</M>": 7245,
    "द्यैः": 7246,
    "द्वारमुपा": 7247,
    "द्विजै": 7248,
    "द्विनि": 7249,
    "धन्या": 7250,
    "धन्वा": 7251,
    "धारः</M>": 7252,
    "धार्थि": 7253,
    "ध्वम्</M>": 7254,
    "ध्वस्ता": 7255,
    "नगाः": 7256,
    "नामनी</M>": 7257,
    "नारि": 7258,
    "न्तमना": 7259,
    "न्तमपि</M>": 7260,
    "न्तर्ज": 7261,
    "न्त्यस्य</M>": 7262,
    "न्त्योऽ": 7263,
    "न्त्रै": 7264,
    "न्धर्म": 7265,
    "न्धाः</M>": 7266,
    "न्मन्यते</M>": 7267,
    "न्यमृ": 7268,
    "न्यश्च</M>": 7269,
    "न्विवि": 7270,
    "पता</M>": 7271,
    "पत्यम": 7272,
    "पत्यो": 7273,
    "परमै": 7274,
    "परावृत्</M>": 7275,
    "पर्णस्य</M>": 7276,
    "पुत्रां": 7277,
    "पुनर्ग": 7278,
    "पुनर्गत्</M>": 7279,
    "पुनर्भव": 7280,
    "पुनर्मा": 7281,
    "पुनर्या": 7282,
    "पूर्वः</M>": 7283,
    "प्तप": 7284,
    "प्यन</M>": 7285,
    "प्रक्षी": 7286,
    "प्लक्ष": 7287,
    "ब्जे": 7288,
    "ब्दैः": 7289,
    "ब्धे</M>": 7290,
    "भाँ": 7291,
    "भाराव": 7292,
    "भारु": 7293,
    "भीमौ</M>": 7294,
    "भ्राजे": 7295,
    "भ्रेण</M>": 7296,
    "मनम": 7297,
    "मन्यथा</M>": 7298,
    "महर्षेः": 7299,
    "मानां": 7300,
    "मुं": 7301,
    "मौा": 7302,
    "म्बः": 7303,
    "म्भे</M>": 7304,
    "यदक्षि": 7305,
    "यदो": 7306,
    "यद्या": 7307,
    "यद्व": 7308,
    "यमानाः</M>": 7309,
    "यमिव</M>": 7310,
    "रक्षु": 7311,
    "रक्ष्यं</M>": 7312,
    "रक्ष्या": 7313,
    "राजौ": 7314,
    "राज्य</M>": 7315,
    "राज्यम्</M>": 7316,
    "राम्बु": 7317,
    "रावस": 7318,
    "र्के": 7319,
    "र्क्ष्य</M>": 7320,
    "र्जने": 7321,
    "र्जयाः</M>": 7322,
    "र्जयो</M>": 7323,
    "र्णौ": 7324,
    "र्दक्षि": 7325,
    "र्दशे</M>": 7326,
    "र्धि": 7327,
    "र्ध्व</M>": 7328,
    "र्नो": 7329,
    "र्भवि": 7330,
    "र्भीमो</M>": 7331,
    "र्महात्मानः</M>": 7332,
    "र्यज्ञैः": 7333,
    "र्यश": 7334,
    "र्युः": 7335,
    "र्वः</M>": 7336,
    "र्वद": 7337,
    "र्वराज": 7338,
    "र्विशा": 7339,
    "र्विशाम्पते</M>": 7340,
    "र्षभैः": 7341,
    "लुः": 7342,
    "लोक्यमपि</M>": 7343,
    "लोक्या": 7344,
    "ल्पां": 7345,
    "ल्पिताः</M>": 7346,
    "ल्पौ": 7347,
    "वचैः": 7348,
    "वन्मु": 7349,
    "वराजो": 7350,
    "वर्तं</M>": 7351,
    "वर्तः</M>": 7352,
    "वर्तमाने": 7353,
    "वर्धे": 7354,
    "वर्षेः": 7355,
    "वसमेव</M>": 7356,
    "वस्ता</M>": 7357,
    "वानमि": 7358,
    "वान्व</M>": 7359,
    "वार्ता</M>": 7360,
    "वासमि": 7361,
    "वासौ</M>": 7362,
    "वास्तदा</M>": 7363,
    "वाहः</M>": 7364,
    "विनिः": 7365,
    "विशां": 7366,
    "वीर्यशु": 7367,
    "वीर्यात्</M>": 7368,
    "वेदः</M>": 7369,
    "वेदान्त": 7370,
    "वेदो</M>": 7371,
    "वैशा": 7372,
    "व्यदर्श": 7373,
    "व्यश्वसू": 7374,
    "व्रा</M>": 7375,
    "शरथेः": 7376,
    "शर्कर": 7377,
    "शासु</M>": 7378,
    "शास्य</M>": 7379,
    "शोकार्तः</M>": 7380,
    "श्चर</M>": 7381,
    "श्चरामि</M>": 7382,
    "श्नो": 7383,
    "श्यमानो</M>": 7384,
    "श्याः</M>": 7385,
    "श्लोको</M>": 7386,
    "श्वनः</M>": 7387,
    "श्वरेण</M>": 7388,
    "श्वरौ": 7389,
    "श्वासमु": 7390,
    "श्वौ": 7391,
    "षां": 7392,
    "ष्कृतान्</M>": 7393,
    "ष्कृतैः</M>": 7394,
    "ष्णाः</M>": 7395,
    "ष्यां</M>": 7396,
    "ष्यौ</M>": 7397,
    "ष्वासी": 7398,
    "सत्य</M>": 7399,
    "समन्व": 7400,
    "समैः": 7401,
    "सम्भ": 7402,
    "सम्भारान्</M>": 7403,
    "सम्भ्रमं</M>": 7404,
    "सर्वदि": 7405,
    "सर्वसं": 7406,
    "सह्या": 7407,
    "स्करस्य</M>": 7408,
    "स्कारै": 7409,
    "स्च</M>": 7410,
    "स्तपा": 7411,
    "स्तम्</M>": 7412,
    "स्तरा": 7413,
    "स्त्यश्च</M>": 7414,
    "स्त्यश्व": 7415,
    "स्थैः": 7416,
    "स्परेण</M>": 7417,
    "स्यदो": 7418,
    "स्यमनु": 7419,
    "स्योऽ": 7420,
    "स्रमु": 7421,
    "स्वनि": 7422,
    "स्वस्थः": 7423,
    "स्वस्थो": 7424,
    "स्वास्ती": 7425,
    "हराज": 7426,
    "हरेः": 7427,
    "हरो": 7428,
    "ह्नः</M>": 7429,
    "ह्यमानं</M>": 7430,
    "ह्यमानस्य</M>": 7431,
    "ह्यमे": 7432,
    "ह्वां": 7433,
    "ह्वानं</M>": 7434,
    "करस्य</M>": 7435,
    "कराक्ष": 7436,
    "कराज": 7437,
    "कारमा": 7438,
    "कार्दि": 7439,
    "कृतदा": 7440,
    "कृतमू": 7441,
    "कृत्त": 7442,
    "कृत्स्नम": 7443,
    "क्तम</M>": 7444,
    "क्तमनु": 7445,
    "क्तरथ": 7446,
    "क्त्रा</M>": 7447,
    "क्यमू": 7448,
    "क्यां</M>": 7449,
    "क्यौ</M>": 7450,
    "क्रथ": 7451,
    "क्रमा</M>": 7452,
    "क्वासौ</M>": 7453,
    "क्षिं": 7454,
    "क्ष्मा</M>": 7455,
    "क्ष्मो</M>": 7456,
    "क्ष्यो": 7457,
    "ख्यमा": 7458,
    "ख्युः": 7459,
    "ख्यो": 7460,
    "गन्धि</M>": 7461,
    "ग्धे</M>": 7462,
    "ग्धौ": 7463,
    "ग्नमन": 7464,
    "ग्बुद्</M>": 7465,
    "घुः": 7466,
    "घ्नम": 7467,
    "घ्नाः</M>": 7468,
    "घ्नीं": 7469,
    "घ्नो": 7470,
    "घ्रमु": 7471,
    "घ्रावि": 7472,
    "ङ्गतः</M>": 7473,
    "ङ्म": 7474,
    "चाः": 7475,
    "च्छ्रु": 7476,
    "छ्वास": 7477,
    "जनम": 7478,
    "जन्त्ये": 7479,
    "जयमित्</M>": 7480,
    "जयमुपा": 7481,
    "ज्जन्ति</M>": 7482,
    "ज्यमानाः</M>": 7483,
    "ज्वर": 7484,
    "ज्वरं</M>": 7485,
    "ज्वरम्</M>": 7486,
    "ज्वरा</M>": 7487,
    "ञ्चं": 7488,
    "ड़": 7489,
    "ड्म": 7490,
    "ड्य": 7491,
    "णेः": 7492,
    "ण्ड्य": 7493,
    "ण्वो</M>": 7494,
    "तत्परम्</M>": 7495,
    "तत्पा": 7496,
    "तत्य": 7497,
    "तत्व": 7498,
    "तत्सम्</M>": 7499,
    "तत्सर्व": 7500,
    "तदमृ": 7501,
    "तदेवि": 7502,
    "तद्भू": 7503,
    "तद्रक्षः</M>": 7504,
    "तद्रक्षो": 7505,
    "तद्वच": 7506,
    "तमन</M>": 7507,
    "तमन्वे": 7508,
    "तमह": 7509,
    "तर्जय": 7510,
    "तर्जि": 7511,
    "तिष्ठं": 7512,
    "त्कारै": 7513,
    "त्कालं</M>": 7514,
    "त्तमं</M>": 7515,
    "त्तमाः": 7516,
    "त्तमैः": 7517,
    "त्तरा": 7518,
    "त्तै": 7519,
    "त्न</M>": 7520,
    "त्परम": 7521,
    "त्पुरुष": 7522,
    "त्प्रजा": 7523,
    "त्प्लु": 7524,
    "त्मन</M>": 7525,
    "त्मानमनु": 7526,
    "त्मानमि": 7527,
    "त्यत्र</M>": 7528,
    "त्रमनु": 7529,
    "त्रमृ": 7530,
    "त्वचं": 7531,
    "त्वर</M>": 7532,
    "त्वसम्प": 7533,
    "त्वादि": 7534,
    "त्वान्</M>": 7535,
    "त्सौ": 7536,
    "त्स्त": 7537,
    "थ्यस्य</M>": 7538,
    "दमन्यत्</M>": 7539,
    "दश्चापि</M>": 7540,
    "दश्यां</M>": 7541,
    "दानमे": 7542,
    "दान्तस्य</M>": 7543,
    "दान्तान्</M>": 7544,
    "देवदेवो</M>": 7545,
    "देवने</M>": 7546,
    "द्गति": 7547,
    "द्गम्य</M>": 7548,
    "द्दश": 7549,
    "द्धिः": 7550,
    "द्बा": 7551,
    "द्भ्यो</M>": 7552,
    "द्मः</M>": 7553,
    "द्महे</M>": 7554,
    "द्मा</M>": 7555,
    "द्मो</M>": 7556,
    "द्रमु": 7557,
    "द्वन्द्वं</M>": 7558,
    "द्वन्द्वा": 7559,
    "द्वारमु": 7560,
    "द्व्य": 7561,
    "धनगृ": 7562,
    "धारां": 7563,
    "धार्दि": 7564,
    "ध्यो": 7565,
    "ध्रो</M>": 7566,
    "नमिव</M>": 7567,
    "नरेण</M>": 7568,
    "नर्थे": 7569,
    "नर्थो": 7570,
    "नर्द</M>": 7571,
    "नागे</M>": 7572,
    "नामन": 7573,
    "नार्त": 7574,
    "नार्दि": 7575,
    "नार्या</M>": 7576,
    "न्तमन्व": 7577,
    "न्तमान": 7578,
    "न्तमृ": 7579,
    "न्तमेव</M>": 7580,
    "न्त्यश्च</M>": 7581,
    "न्त्री</M>": 7582,
    "न्द्रां": 7583,
    "न्धने</M>": 7584,
    "न्धारीं": 7585,
    "न्धार्याः</M>": 7586,
    "न्ध्यो</M>": 7587,
    "न्नम</M>": 7588,
    "न्नमृ": 7589,
    "न्नर्जु": 7590,
    "न्नार": 7591,
    "न्मह्यं</M>": 7592,
    "न्यमे": 7593,
    "न्वित्</M>": 7594,
    "न्स्व": 7595,
    "पत्ना</M>": 7596,
    "पत्नीं": 7597,
    "पत्यस्य</M>": 7598,
    "पराजयौ</M>": 7599,
    "पश्यमान": 7600,
    "पितापुत्रौ": 7601,
    "पुनर्द</M>": 7602,
    "पुनर्नृ": 7603,
    "पुनि": 7604,
    "पुरः": 7605,
    "पूर्वम्</M>": 7606,
    "प्तद्वी": 7607,
    "प्तम्</M>": 7608,
    "प्यमानः</M>": 7609,
    "प्या</M>": 7610,
    "प्रमी": 7611,
    "ब्रह्मै": 7612,
    "ब्राह्मया</M>": 7613,
    "भग्न</M>": 7614,
    "भग्नः</M>": 7615,
    "भवन्मही": 7616,
    "भवन्मुनिः": 7617,
    "भवाः</M>": 7618,
    "भ्याः</M>": 7619,
    "भ्युद्</M>": 7620,
    "भ्रमन्</M>": 7621,
    "भ्रमिव</M>": 7622,
    "मनर्थ": 7623,
    "मन्तम्</M>": 7624,
    "मन्ता": 7625,
    "मन्तौ</M>": 7626,
    "मन्यद": 7627,
    "महात्मनो</M>": 7628,
    "महात्मन्</M>": 7629,
    "मानम्</M>": 7630,
    "मान्या</M>": 7631,
    "म्ने": 7632,
    "म्पिताः</M>": 7633,
    "म्ये</M>": 7634,
    "यँ": 7635,
    "यदेव</M>": 7636,
    "यमना": 7637,
    "यमा</M>": 7638,
    "यमान</M>": 7639,
    "य्यम": 7640,
    "रक्ष्यः</M>": 7641,
    "रक्ष्यो</M>": 7642,
    "रमहो": 7643,
    "रमिति</M>": 7644,
    "रमित्</M>": 7645,
    "राज्यमे": 7646,
    "राव्या": 7647,
    "र्कः</M>": 7648,
    "र्कर": 7649,
    "र्को</M>": 7650,
    "र्चिः": 7651,
    "र्जनैः": 7652,
    "र्जयं</M>": 7653,
    "र्जयेत्</M>": 7654,
    "र्जीवि": 7655,
    "र्तरूपः</M>": 7656,
    "र्तश्च</M>": 7657,
    "र्थ्यं</M>": 7658,
    "र्दम": 7659,
    "र्दानै": 7660,
    "र्देवि</M>": 7661,
    "र्दो</M>": 7662,
    "र्द्विजैः": 7663,
    "र्नागा": 7664,
    "र्ने</M>": 7665,
    "र्बला</M>": 7666,
    "र्बलो</M>": 7667,
    "र्ब्र": 7668,
    "र्भग्नै": 7669,
    "र्भर": 7670,
    "र्भीमै": 7671,
    "र्मः</M>": 7672,
    "र्यदु": 7673,
    "र्यद्</M>": 7674,
    "र्वन्न": 7675,
    "र्वरक्ष": 7676,
    "र्वरि": 7677,
    "र्वस्त्रै": 7678,
    "र्वैश्र": 7679,
    "लोकम्</M>": 7680,
    "ल्काः</M>": 7681,
    "ल्वा</M>": 7682,
    "वच</M>": 7683,
    "वनि</M>": 7684,
    "वन्तमा": 7685,
    "वन्तमुपा": 7686,
    "वन्द्य</M>": 7687,
    "वन्म</M>": 7688,
    "वरमनु": 7689,
    "वराज": 7690,
    "वराम्</M>": 7691,
    "वर्गे": 7692,
    "वर्ज": 7693,
    "वर्तमानम्</M>": 7694,
    "वसम": 7695,
    "वस्</M>": 7696,
    "वस्तं</M>": 7697,
    "वानं</M>": 7698,
    "वान्ध": 7699,
    "वान्या": 7700,
    "वार्क": 7701,
    "वार्ह": 7702,
    "वास्त": 7703,
    "वास्मी": 7704,
    "विष्टां": 7705,
    "वीर्यश्च</M>": 7706,
    "व्राज": 7707,
    "शतः</M>": 7708,
    "शतपत्रा": 7709,
    "शतमु": 7710,
    "शतमे": 7711,
    "शरमा": 7712,
    "शरी</M>": 7713,
    "शरू": 7714,
    "शास्त्रम": 7715,
    "शास्त्रमि": 7716,
    "शोकै": 7717,
    "श्चर्य</M>": 7718,
    "श्चर्या": 7719,
    "श्चर्ये</M>": 7720,
    "श्चिन्ता</M>": 7721,
    "श्यमानः</M>": 7722,
    "श्रेष्ठां": 7723,
    "श्वराजो": 7724,
    "श्वरूपं</M>": 7725,
    "श्वासै": 7726,
    "श्वेदेवाः</M>": 7727,
    "षीः": 7728,
    "ष्कृ": 7729,
    "ष्कृता": 7730,
    "ष्कृताः</M>": 7731,
    "ष्कै": 7732,
    "ष्ट्यां</M>": 7733,
    "ष्पत्य</M>": 7734,
    "ष्परि": 7735,
    "ष्मन्तं</M>": 7736,
    "ष्मौ</M>": 7737,
    "ष्यद्</M>": 7738,
    "सत्यमि": 7739,
    "समहा": 7740,
    "समाना</M>": 7741,
    "समानानां</M>": 7742,
    "समानि</M>": 7743,
    "सम्भवा": 7744,
    "सर्वदर्शि": 7745,
    "सर्वरा": 7746,
    "सर्वराजा": 7747,
    "सर्वस्वं</M>": 7748,
    "सर्वार्था": 7749,
    "सर्वास्ताः</M>": 7750,
    "स्कृताम्</M>": 7751,
    "स्कृतैः</M>": 7752,
    "स्तदानीं": 7753,
    "स्तेि": 7754,
    "स्त्रम्</M>": 7755,
    "स्त्रिः": 7756,
    "स्त्वन": 7757,
    "स्त्वृ": 7758,
    "स्मान</M>": 7759,
    "स्मान्मन्यु": 7760,
    "स्म्यद्य</M>": 7761,
    "स्वन्त</M>": 7762,
    "स्वरि": 7763,
    "स्वरूपं</M>": 7764,
    "स्वरैः": 7765,
    "स्वरो</M>": 7766,
    "स्वस्त्या": 7767,
    "स्वस्त्री": 7768,
    "स्वा</M>": 7769,
    "स्वार्थं</M>": 7770,
    "स्सु</M>": 7771,
    "हरु": 7772,
    "ह्यमानाः</M>": 7773,
    "ह्वो</M>": 7774,
    "अनु</M>": 7775,
    "एं": 7776,
    "करम": 7777,
    "कर्णौ": 7778,
    "कर्षो": 7779,
    "कामान्न</M>": 7780,
    "कार्योऽ": 7781,
    "कुलां": 7782,
    "कृतश्च</M>": 7783,
    "कृत्ति": 7784,
    "कृत्स्नमा": 7785,
    "क्के</M>": 7786,
    "क्तदे": 7787,
    "क्तां": 7788,
    "क्त्रे</M>": 7789,
    "क्त्रै": 7790,
    "क्त्रैः": 7791,
    "क्त्वार्जु": 7792,
    "क्पृ": 7793,
    "क्यमृ": 7794,
    "क्रामन्</M>": 7795,
    "क्रोधनो</M>": 7796,
    "क्लं</M>": 7797,
    "क्लै": 7798,
    "क्वचन</M>": 7799,
    "क्वस्थः": 7800,
    "क्वासि</M>": 7801,
    "क्षां": 7802,
    "क्ष्णः</M>": 7803,
    "क्ष्णो": 7804,
    "क्स": 7805,
    "गन्धः</M>": 7806,
    "ग्दर्श": 7807,
    "ग्धि": 7808,
    "ग्धो": 7809,
    "ग्नस्य</M>": 7810,
    "ग्यम": 7811,
    "ग्यो</M>": 7812,
    "घ्ना</M>": 7813,
    "घ्रमभि": 7814,
    "घ्रमान": 7815,
    "ङ": 7816,
    "ङ्क्त": 7817,
    "ङ्खो": 7818,
    "ङ्ग्य</M>": 7819,
    "ङ्मा": 7820,
    "चरमा": 7821,
    "चरामो</M>": 7822,
    "चरु": 7823,
    "चर्यस्य</M>": 7824,
    "च्छ्वास": 7825,
    "छाः": 7826,
    "छौ": 7827,
    "छ्रमा": 7828,
    "छ्व": 7829,
    "जं": 7830,
    "जयत</M>": 7831,
    "जयद्रथा": 7832,
    "जय्यं</M>": 7833,
    "ज्जगाम</M>": 7834,
    "ज्जनाः</M>": 7835,
    "ज्झि": 7836,
    "ज्यः</M>": 7837,
    "ज्रस्य</M>": 7838,
    "ट्वा": 7839,
    "ड्ने": 7840,
    "ड्या": 7841,
    "ड्वाहं</M>": 7842,
    "ढी": 7843,
    "ढौ": 7844,
    "ण्ठाः": 7845,
    "ण्ड्र": 7846,
    "ण्णेन</M>": 7847,
    "ण्यौ</M>": 7848,
    "ततं</M>": 7849,
    "ततरो</M>": 7850,
    "तत्कृते</M>": 7851,
    "तत्पराम्</M>": 7852,
    "तत्सु": 7853,
    "तदर्शि": 7854,
    "तदु</M>": 7855,
    "तप्या": 7856,
    "तरणे</M>": 7857,
    "तर्वा</M>": 7858,
    "ताप</M>": 7859,
    "त्कार्यं</M>": 7860,
    "त्कृतान्</M>": 7861,
    "त्कृतो</M>": 7862,
    "त्क्रुद्</M>": 7863,
    "त्तमा</M>": 7864,
    "त्तरं</M>": 7865,
    "त्तस्य</M>": 7866,
    "त्ते": 7867,
    "त्तौ</M>": 7868,
    "त्नैः": 7869,
    "त्पर्व": 7870,
    "त्पुरुषो": 7871,
    "त्प्रे": 7872,
    "त्मनां</M>": 7873,
    "त्मनैव</M>": 7874,
    "त्मनोः": 7875,
    "त्मानमी": 7876,
    "त्मान्</M>": 7877,
    "त्रणे</M>": 7878,
    "त्राम": 7879,
    "त्रामा": 7880,
    "त्वच": 7881,
    "त्वदा": 7882,
    "त्वन्नि": 7883,
    "त्स्ना": 7884,
    "त्स्ने": 7885,
    "त्स्यैः": 7886,
    "दमभि": 7887,
    "दशां": 7888,
    "दश्वान्</M>": 7889,
    "दानः</M>": 7890,
    "दान्महा": 7891,
    "देवन्</M>": 7892,
    "देवास्तु</M>": 7893,
    "देव्यौ</M>": 7894,
    "द्गृ": 7895,
    "द्घा": 7896,
    "द्धर्म</M>": 7897,
    "द्भवाः</M>": 7898,
    "द्भवेत्</M>": 7899,
    "द्यस्य</M>": 7900,
    "द्यौ</M>": 7901,
    "द्रणे</M>": 7902,
    "द्वचो": 7903,
    "द्वरा": 7904,
    "द्वास्</M>": 7905,
    "द्विजनि": 7906,
    "द्विष्टं</M>": 7907,
    "धनी</M>": 7908,
    "धन्वो": 7909,
    "धार्थाः": 7910,
    "धृष्टि": 7911,
    "ध्यमानां</M>": 7912,
    "ध्यमे": 7913,
    "ध्रस्य</M>": 7914,
    "ध्वसः</M>": 7915,
    "नं": 7916,
    "नागैः": 7917,
    "नानागु": 7918,
    "नानारूप": 7919,
    "नानारूपै": 7920,
    "नार्थी": 7921,
    "नार्ये": 7922,
    "न्ग": 7923,
    "न्तमुपा": 7924,
    "न्तरमि": 7925,
    "न्त्य</M>": 7926,
    "न्दुं": 7927,
    "न्द्यां</M>": 7928,
    "न्धना</M>": 7929,
    "न्धारा": 7930,
    "न्धौ": 7931,
    "न्नगं</M>": 7932,
    "न्नगी": 7933,
    "न्नाम": 7934,
    "न्नारा": 7935,
    "न्नार्थ": 7936,
    "न्नू": 7937,
    "न्पृ": 7938,
    "न्मम</M>": 7939,
    "न्महाबाहुः</M>": 7940,
    "न्मान": 7941,
    "न्यत</M>": 7942,
    "न्यद्भि": 7943,
    "न्यमाने</M>": 7944,
    "न्यमुपा": 7945,
    "न्राम": 7946,
    "न्राव": 7947,
    "न्वन्तो</M>": 7948,
    "न्विष्य</M>": 7949,
    "न्वृ": 7950,
    "न्हरि": 7951,
    "पत्नं</M>": 7952,
    "पत्यो</M>": 7953,
    "पत्राक्ष</M>": 7954,
    "पत्रेण</M>": 7955,
    "परमु": 7956,
    "पर्यश्रु": 7957,
    "पश्यमाना</M>": 7958,
    "पापाः": 7959,
    "पुत्राव": 7960,
    "पुत्रीं": 7961,
    "पुनरमे": 7962,
    "पुनरावृ": 7963,
    "पुनर्जन्म</M>": 7964,
    "पुनर्जी": 7965,
    "पुनर्बा": 7966,
    "पुनर्भा": 7967,
    "पुनर्वचः</M>": 7968,
    "पुनर्वा": 7969,
    "पुनर्वाक्यं</M>": 7970,
    "पुरि": 7971,
    "प्तमे</M>": 7972,
    "प्त्य": 7973,
    "प्यदृ": 7974,
    "प्यमानमि": 7975,
    "प्यशु": 7976,
    "प्रसा</M>": 7977,
    "प्राज्ञैः": 7978,
    "ब्ज": 7979,
    "ब्दाः": 7980,
    "ब्ध</M>": 7981,
    "ब्धि": 7982,
    "भग्नो": 7983,
    "भरा": 7984,
    "भवा</M>": 7985,
    "भवां": 7986,
    "भवाना": 7987,
    "भारो</M>": 7988,
    "भ्दि": 7989,
    "भ्यै": 7990,
    "भ्रं": 7991,
    "भ्रमः</M>": 7992,
    "भ्रमुः": 7993,
    "मनर्था": 7994,
    "मनार्य": 7995,
    "मनी</M>": 7996,
    "मन्तमि": 7997,
    "मन्दि": 7998,
    "मन्न": 7999,
    "मन्वाना</M>": 8000,
    "महात्मान</M>": 8001,
    "मह्यम": 8002,
    "मान्यः</M>": 8003,
    "म्नगाः": 8004,
    "म्नैव</M>": 8005,
    "म्याः</M>": 8006,
    "यदान": 8007,
    "यदेवं</M>": 8008,
    "यदो</M>": 8009,
    "यद्यस्य</M>": 8010,
    "यद्वद्</M>": 8011,
    "यमनि": 8012,
    "यमन्विष्य</M>": 8013,
    "यमर्ह": 8014,
    "यमानां</M>": 8015,
    "यशतेन</M>": 8016,
    "यशर": 8017,
    "यशोक": 8018,
    "यश्चरे": 8019,
    "यश्रेष्ठो": 8020,
    "यश्लक्ष्ण": 8021,
    "युं": 8022,
    "यूं": 8023,
    "रमन": 8024,
    "रमहा": 8025,
    "रमी": 8026,
    "रम्भे</M>": 8027,
    "राजन्ते</M>": 8028,
    "रामनि": 8029,
    "रूपतो</M>": 8030,
    "रूपिता</M>": 8031,
    "र्घं": 8032,
    "र्च्छि": 8033,
    "र्जनि": 8034,
    "र्तृ": 8035,
    "र्थ्या": 8036,
    "र्दान्तः</M>": 8037,
    "र्देवा": 8038,
    "र्द्विजो": 8039,
    "र्ध्वरो": 8040,
    "र्नम": 8041,
    "र्नरे": 8042,
    "र्नाम": 8043,
    "र्बली": 8044,
    "र्मनः</M>": 8045,
    "र्महत्</M>": 8046,
    "र्महात्मानो</M>": 8047,
    "र्मान्</M>": 8048,
    "र्यज्ञा": 8049,
    "र्यदत्</M>": 8050,
    "र्वराजो": 8051,
    "र्वर्त": 8052,
    "र्वानर</M>": 8053,
    "र्वासि": 8054,
    "र्वाह्नि": 8055,
    "र्वित्</M>": 8056,
    "र्विनिह": 8057,
    "र्ष्ण": 8058,
    "र्ह्ल": 8059,
    "ल्पतः</M>": 8060,
    "ल्पी": 8061,
    "ल्मै": 8062,
    "ल्यमि": 8063,
    "ल्यैः": 8064,
    "ल्लँ": 8065,
    "ल्वः</M>": 8066,
    "ल्वस्य</M>": 8067,
    "ल्विष": 8068,
    "वचां": 8069,
    "वनमुपा": 8070,
    "वनार्थं</M>": 8071,
    "वन्त्ये": 8072,
    "वन्म": 8073,
    "वन्मया</M>": 8074,
    "वन्यं</M>": 8075,
    "वरमि": 8076,
    "वराज्येन</M>": 8077,
    "वरी": 8078,
    "वर्गः": 8079,
    "वर्जनात्</M>": 8080,
    "वर्जने</M>": 8081,
    "वर्तमान": 8082,
    "वर्ता</M>": 8083,
    "वर्ते</M>": 8084,
    "वर्तेन</M>": 8085,
    "वर्त्म": 8086,
    "वर्धनो": 8087,
    "वसञ्</M>": 8088,
    "वस्तव</M>": 8089,
    "वस्तात</M>": 8090,
    "वस्त्रम": 8091,
    "वस्त्रां": 8092,
    "वस्त्रेण</M>": 8093,
    "वस्थ": 8094,
    "वान्यान्</M>": 8095,
    "वार्ष": 8096,
    "वासमा": 8097,
    "वास्मान्</M>": 8098,
    "विक्रु": 8099,
    "विषैः": 8100,
    "विष्टि": 8101,
    "वेदमा": 8102,
    "वेद्यां</M>": 8103,
    "वैश्वदेवं</M>": 8104,
    "वॉ": 8105,
    "व्यम</M>": 8106,
    "व्यौ": 8107,
    "व्रां": 8108,
    "शरावा": 8109,
    "शर्वं</M>": 8110,
    "शासत्</M>": 8111,
    "शासे": 8112,
    "शिः": 8113,
    "शिखां": 8114,
    "शीः": 8115,
    "शोकार्ता": 8116,
    "श्चतु</M>": 8117,
    "श्चर्यमिति</M>": 8118,
    "श्यत्</M>": 8119,
    "श्यमानं</M>": 8120,
    "श्यमाना</M>": 8121,
    "श्यमाने": 8122,
    "श्यश्च</M>": 8123,
    "श्र</M>": 8124,
    "श्रमनि": 8125,
    "श्रमा</M>": 8126,
    "श्रम्य": 8127,
    "श्रा</M>": 8128,
    "श्वनागा": 8129,
    "श्वस्तः</M>": 8130,
    "ष्करमा": 8131,
    "ष्कृताम्</M>": 8132,
    "ष्क्रम्या": 8133,
    "ष्ठिः": 8134,
    "ष्पर": 8135,
    "ष्वन": 8136,
    "ष्वस्त्रे</M>": 8137,
    "सत्यमु": 8138,
    "समन": 8139,
    "समन</M>": 8140,
    "समानः</M>": 8141,
    "समानेन</M>": 8142,
    "सम्पत्</M>": 8143,
    "सम्भव</M>": 8144,
    "सम्मान": 8145,
    "सम्मानि": 8146,
    "सर्वास्ति": 8147,
    "सर्वास्त्रा": 8148,
    "सर्वैश्च</M>": 8149,
    "सहस्रम": 8150,
    "साग्रं</M>": 8151,
    "स्तत</M>": 8152,
    "स्तदै": 8153,
    "स्तपति</M>": 8154,
    "स्तप्य": 8155,
    "स्तप्यते</M>": 8156,
    "स्तम</M>": 8157,
    "स्तमभि": 8158,
    "स्तमू": 8159,
    "स्तमेव</M>": 8160,
    "स्तोऽ": 8161,
    "स्त्यम": 8162,
    "स्त्र</M>": 8163,
    "स्त्रमनु": 8164,
    "स्त्वद्</M>": 8165,
    "स्त्वन्ये</M>": 8166,
    "स्परमा": 8167,
    "स्मन्नि": 8168,
    "स्यमानो</M>": 8169,
    "स्रमेव</M>": 8170,
    "स्रै": 8171,
    "स्वदो": 8172,
    "स्वरथे": 8173,
    "स्वर्गतिं</M>": 8174,
    "स्वस्थं</M>": 8175,
    "स्वस्था</M>": 8176,
    "हौः": 8177,
    "ह्ना": 8178,
    "ह्यत</M>": 8179,
    "ह्यमु": 8180,
    "ह्यान्</M>": 8181,
    "ह्वाः</M>": 8182,
    "ह्वि": 8183,
    "ह्वीः": 8184,
    "एवानु": 8185,
    "करथो": 8186,
    "करावु": 8187,
    "काम्पि": 8188,
    "कारमु": 8189,
    "कारस्य</M>": 8190,
    "कारी": 8191,
    "कार्यमपि</M>": 8192,
    "कार्येन</M>": 8193,
    "कार्ष्णिः": 8194,
    "कृतदर्श": 8195,
    "कृताँ": 8196,
    "कृतानां</M>": 8197,
    "कृत्यः</M>": 8198,
    "क्का": 8199,
    "क्त्यृ": 8200,
    "क्त्रः</M>": 8201,
    "क्त्वृ": 8202,
    "क्थि": 8203,
    "क्प": 8204,
    "क्मं</M>": 8205,
    "क्यमभि": 8206,
    "क्रमत्</M>": 8207,
    "क्रमो": 8208,
    "क्वा</M>": 8209,
    "ख्यदर्श": 8210,
    "गन्धाः</M>": 8211,
    "ग्णा": 8212,
    "ग्धां": 8213,
    "ग्नमान": 8214,
    "ग्रामा</M>": 8215,
    "ग्रामो": 8216,
    "ग्वृत्</M>": 8217,
    "घ्ने": 8218,
    "ङ्करा": 8219,
    "ङ्कामे": 8220,
    "ङ्कारं</M>": 8221,
    "ङ्कारः</M>": 8222,
    "ङ्कुशा": 8223,
    "ङ्क्षा": 8224,
    "चेः": 8225,
    "चेतो</M>": 8226,
    "च्छू": 8227,
    "च्यमा": 8228,
    "च्यमान": 8229,
    "जन्ती</M>": 8230,
    "जन्त्य": 8231,
    "जन्मना</M>": 8232,
    "ज्जः</M>": 8233,
    "ज्जनमे": 8234,
    "ज्जो": 8235,
    "ज्ज्ञे": 8236,
    "ज्यमनु": 8237,
    "ज्यमाने</M>": 8238,
    "ज्यान्</M>": 8239,
    "ञ्छति</M>": 8240,
    "ञ्छृ": 8241,
    "ञ्जनार्द": 8242,
    "ट्काले</M>": 8243,
    "ट्या": 8244,
    "ट्शू": 8245,
    "ड्यमानाः</M>": 8246,
    "ड्वे": 8247,
    "ण्ठं": 8248,
    "ण्डैः": 8249,
    "ण्यदर्श": 8250,
    "ण्यश": 8251,
    "ततमं</M>": 8252,
    "तताप</M>": 8253,
    "ततु": 8254,
    "तत्काल": 8255,
    "तत्परं</M>": 8256,
    "तदशे": 8257,
    "तदृष्ट्वा</M>": 8258,
    "तद्ब्रवी": 8259,
    "तद्राक्ष": 8260,
    "तद्वचो": 8261,
    "तपुत्रम": 8262,
    "तप्यमानं</M>": 8263,
    "तप्यमानः</M>": 8264,
    "तप्रसा": 8265,
    "तमन्युः": 8266,
    "तराव": 8267,
    "तर्तु": 8268,
    "तर्पिताः</M>": 8269,
    "तर्वि": 8270,
    "तस्मानि": 8271,
    "तापिताः</M>": 8272,
    "ताप्र": 8273,
    "तृः": 8274,
    "त्कर": 8275,
    "त्करो": 8276,
    "त्कुरु": 8277,
    "त्कुश": 8278,
    "त्त्वो": 8279,
    "त्पराः</M>": 8280,
    "त्मभि": 8281,
    "त्मानमे": 8282,
    "त्मानु": 8283,
    "त्मो": 8284,
    "त्यमानै": 8285,
    "त्रीं": 8286,
    "त्रू": 8287,
    "त्वचा": 8288,
    "त्वना": 8289,
    "त्वने": 8290,
    "त्वन्ये</M>": 8291,
    "त्वराः</M>": 8292,
    "त्वार</M>": 8293,
    "त्विष": 8294,
    "त्सत्यं</M>": 8295,
    "त्समं</M>": 8296,
    "त्साद्य</M>": 8297,
    "त्सोः": 8298,
    "थ्यम": 8299,
    "थ्यो</M>": 8300,
    "दमा</M>": 8301,
    "दमाना": 8302,
    "दम्बा": 8303,
    "दर्शासी": 8304,
    "दानम्</M>": 8305,
    "दान्ते</M>": 8306,
    "दिं": 8307,
    "दिः": 8308,
    "देवदारु": 8309,
    "देवराज्यं</M>": 8310,
    "देवार": 8311,
    "देवास्त्र": 8312,
    "देव्यो</M>": 8313,
    "द्धु": 8314,
    "द्ब": 8315,
    "द्भ्रा": 8316,
    "द्यन्</M>": 8317,
    "द्यमः</M>": 8318,
    "द्रथ": 8319,
    "द्वसु": 8320,
    "द्वारै": 8321,
    "धं": 8322,
    "धनानां</M>": 8323,
    "धनौ": 8324,
    "धन्यः</M>": 8325,
    "धन्वानम": 8326,
    "धार्थी": 8327,
    "धार्या": 8328,
    "धूः": 8329,
    "धृष्टं</M>": 8330,
    "धोः": 8331,
    "ध्न": 8332,
    "ध्ना": 8333,
    "ध्यू": 8334,
    "ध्रः</M>": 8335,
    "ध्वानमा": 8336,
    "ध्वे": 8337,
    "नग्नी": 8338,
    "नर्थं</M>": 8339,
    "नर्थः": 8340,
    "नामन्त": 8341,
    "नामहि": 8342,
    "नारो": 8343,
    "नार्च": 8344,
    "नार्ता</M>": 8345,
    "न्कु": 8346,
    "न्घो": 8347,
    "न्तमनि": 8348,
    "न्तरमु": 8349,
    "न्तरान्</M>": 8350,
    "न्त्रा</M>": 8351,
    "न्त्रो": 8352,
    "न्दमा": 8353,
    "न्दश": 8354,
    "न्दुः": 8355,
    "न्दू": 8356,
    "न्नमन": 8357,
    "न्नरमहो": 8358,
    "न्पर्व": 8359,
    "न्प्रति</M>": 8360,
    "न्मन्ये</M>": 8361,
    "न्म्य": 8362,
    "न्यमान": 8363,
    "न्यमानः</M>": 8364,
    "न्यमानाः</M>": 8365,
    "न्युद्</M>": 8366,
    "न्वरा": 8367,
    "न्समरे</M>": 8368,
    "न्सर्वे</M>": 8369,
    "परमान्</M>": 8370,
    "पराजै": 8371,
    "परामा": 8372,
    "परौ": 8373,
    "पर्जन्यमिव</M>": 8374,
    "पुत्र्या": 8375,
    "पुनरी": 8376,
    "पुनर्गा": 8377,
    "पुनर्भू": 8378,
    "पुनर्म": 8379,
    "पुनर्वी": 8380,
    "पुरमृ": 8381,
    "प्तदश": 8382,
    "प्तमृ": 8383,
    "प्यथा": 8384,
    "प्यद्य</M>": 8385,
    "प्यमानो</M>": 8386,
    "प्ये</M>": 8387,
    "प्रतिष्ठे": 8388,
    "प्लक्षा": 8389,
    "ब्यो</M>": 8390,
    "ब्रह्मनि": 8391,
    "ब्रह्मन्नि": 8392,
    "भग्नानां</M>": 8393,
    "भरतमा": 8394,
    "भर्षि": 8395,
    "भवद्ग": 8396,
    "भवने": 8397,
    "भवै": 8398,
    "भाषा": 8399,
    "भेः": 8400,
    "भ्यस्य</M>": 8401,
    "मनुं": 8402,
    "मन्तमनु": 8403,
    "मन्तरम्</M>": 8404,
    "मन्त्रे": 8405,
    "मन्त्र्या": 8406,
    "मन्द</M>": 8407,
    "मन्यौ</M>": 8408,
    "महात्मनाः</M>": 8409,
    "महात्मानमा": 8410,
    "महैः": 8411,
    "मानाम": 8412,
    "म्नां</M>": 8413,
    "म्बल": 8414,
    "म्बां": 8415,
    "म्योऽ": 8416,
    "यदाः": 8417,
    "यद्ग": 8418,
    "यद्दत्</M>": 8419,
    "यद्य</M>": 8420,
    "यद्वा": 8421,
    "यमन": 8422,
    "यमन्त": 8423,
    "यमह": 8424,
    "यमैः": 8425,
    "यश्चर": 8426,
    "यामा</M>": 8427,
    "य्यः</M>": 8428,
    "य्वस्थि": 8429,
    "य्वा": 8430,
    "रक्षं</M>": 8431,
    "रक्ष्याः</M>": 8432,
    "रमः</M>": 8433,
    "रमानि": 8434,
    "रम्भी": 8435,
    "रम्यै": 8436,
    "राजन्यथा</M>": 8437,
    "रामां</M>": 8438,
    "रामै": 8439,
    "रावन्यो": 8440,
    "र्गतिः</M>": 8441,
    "र्गाः": 8442,
    "र्घि": 8443,
    "र्घे": 8444,
    "र्जगा": 8445,
    "र्जन्तो</M>": 8446,
    "र्जया": 8447,
    "र्त्यमाना": 8448,
    "र्थां": 8449,
    "र्द्वन्द्व": 8450,
    "र्द्विजः</M>": 8451,
    "र्धर्म</M>": 8452,
    "र्धर्मे": 8453,
    "र्नर</M>": 8454,
    "र्नागै": 8455,
    "र्बी": 8456,
    "र्ब्रह्म</M>": 8457,
    "र्ब्रह्मा": 8458,
    "र्भाषि": 8459,
    "र्भीमं</M>": 8460,
    "र्भीष्म</M>": 8461,
    "र्भ्रा": 8462,
    "र्मन्त्रै": 8463,
    "र्येन</M>": 8464,
    "र्ला": 8465,
    "र्ले": 8466,
    "र्वर्ष": 8467,
    "र्वसत्</M>": 8468,
    "र्वानरा</M>": 8469,
    "र्वाहि": 8470,
    "र्विषा": 8471,
    "र्हत्वा</M>": 8472,
    "लक्ष्म्या": 8473,
    "लोकां": 8474,
    "लोकेश</M>": 8475,
    "लोक्ये": 8476,
    "ल्केन</M>": 8477,
    "ल्पतरं</M>": 8478,
    "ल्म</M>": 8479,
    "ल्यम्</M>": 8480,
    "ल्लोकाः</M>": 8481,
    "वदृ": 8482,
    "वन्त्यः</M>": 8483,
    "वन्त्या": 8484,
    "वन्नृ": 8485,
    "वन्प्रति": 8486,
    "वरां": 8487,
    "वराज्ये</M>": 8488,
    "वर्चा": 8489,
    "वर्धनं</M>": 8490,
    "वर्धने</M>": 8491,
    "वर्षभाः": 8492,
    "वसमन्ति": 8493,
    "वस्ती": 8494,
    "वस्त्व": 8495,
    "वस्व</M>": 8496,
    "वान्नं</M>": 8497,
    "वान्स</M>": 8498,
    "वारो": 8499,
    "वार्यं</M>": 8500,
    "वार्ये": 8501,
    "वासन्</M>": 8502,
    "वास्य": 8503,
    "वाहा</M>": 8504,
    "वाहुः</M>": 8505,
    "वाहो</M>": 8506,
    "वीर्यशा": 8507,
    "वैश्यशू": 8508,
    "व्रम": 8509,
    "व्रे</M>": 8510,
    "शतिं</M>": 8511,
    "शत्य": 8512,
    "शरां": 8513,
    "शरावरम्</M>": 8514,
    "शर्वः</M>": 8515,
    "शास्तथा</M>": 8516,
    "शास्त्रस्य</M>": 8517,
    "शास्त्रो": 8518,
    "शोकार्दि": 8519,
    "श्चराः</M>": 8520,
    "श्चिन्तापरो": 8521,
    "श्यस्य</M>": 8522,
    "श्रः</M>": 8523,
    "श्रेण</M>": 8524,
    "श्वनाग": 8525,
    "श्वस्त</M>": 8526,
    "श्वस्तो</M>": 8527,
    "श्वस्य": 8528,
    "श्वस्या": 8529,
    "ष्कार": 8530,
    "ष्कुले": 8531,
    "ष्ट्ये": 8532,
    "ष्ट्रमुपा": 8533,
    "ष्ट्रीं": 8534,
    "ष्ट्रैः": 8535,
    "ष्णम्</M>": 8536,
    "ष्ण्या": 8537,
    "ष्पः</M>": 8538,
    "ष्मन्</M>": 8539,
    "ष्यं": 8540,
    "ष्यदे": 8541,
    "ष्यात्</M>": 8542,
    "ष्वसा": 8543,
    "सत्यम्</M>": 8544,
    "सत्यात्</M>": 8545,
    "समह": 8546,
    "समानं</M>": 8547,
    "समानाः</M>": 8548,
    "सम्पृत्</M>": 8549,
    "सम्प्रजा": 8550,
    "सम्प्रम": 8551,
    "सम्प्रवि": 8552,
    "सम्प्लु": 8553,
    "सम्भवो</M>": 8554,
    "सम्भार": 8555,
    "सम्भाराः</M>": 8556,
    "सम्भ्रमो</M>": 8557,
    "सर्वदान": 8558,
    "सर्वसे": 8559,
    "सर्वसो": 8560,
    "सर्वस्मिन्</M>": 8561,
    "सर्वै</M>": 8562,
    "सहर्षि": 8563,
    "सहस्रमे": 8564,
    "सहस्राक्षा": 8565,
    "सहां": 8566,
    "सहे</M>": 8567,
    "सिः": 8568,
    "सोऽऽ": 8569,
    "स्कृत</M>": 8570,
    "स्कृते</M>": 8571,
    "स्तत्त्वदर्शि": 8572,
    "स्तदे": 8573,
    "स्तप्तुं</M>": 8574,
    "स्तम्भा": 8575,
    "स्तेजः</M>": 8576,
    "स्त्या</M>": 8577,
    "स्त्वरा": 8578,
    "स्नाना": 8579,
    "स्फि": 8580,
    "स्मः</M>": 8581,
    "स्यत्</M>": 8582,
    "स्यस्य</M>": 8583,
    "स्री": 8584,
    "स्रैः": 8585,
    "स्वरथं</M>": 8586,
    "स्वरै": 8587,
    "स्वर्या": 8588,
    "स्वस्त्य": 8589,
    "स्वान": 8590,
    "स्वार्थे": 8591,
    "स्वासु</M>": 8592,
    "स्स": 8593,
    "हरा</M>": 8594,
    "हूः": 8595,
    "ह्नि</M>": 8596,
    "ह्यमन्यत</M>": 8597,
    "ह्यमान": 8598,
    "ह्यमाने</M>": 8599,
    "ह्यमानेन</M>": 8600,
    "ह्यश": 8601,
    "ह्येन</M>": 8602,
    "ह्ली": 8603,
    "कथे": 8604,
    "कर्णा</M>": 8605,
    "कर्णाः</M>": 8606,
    "कर्तु</M>": 8607,
    "कर्तुः</M>": 8608,
    "कर्षं</M>": 8609,
    "कामेव</M>": 8610,
    "काम्यं</M>": 8611,
    "कार्थे": 8612,
    "कार्यों": 8613,
    "काला</M>": 8614,
    "कुलिः": 8615,
    "कृतमु": 8616,
    "कृतेः": 8617,
    "कृत्यमिति</M>": 8618,
    "क्छ": 8619,
    "क्तप": 8620,
    "क्तपा": 8621,
    "क्तस्या": 8622,
    "क्ताप्र": 8623,
    "क्त्रेण</M>": 8624,
    "क्त्वान्तर": 8625,
    "क्थ": 8626,
    "क्पुरो": 8627,
    "क्यमिति</M>": 8628,
    "क्रमन्</M>": 8629,
    "क्रोधि": 8630,
    "क्ष्यमु": 8631,
    "क्सन्</M>": 8632,
    "क्स्रो": 8633,
    "गन्धे</M>": 8634,
    "ग्ध</M>": 8635,
    "ग्नो": 8636,
    "ग्र्याः</M>": 8637,
    "ङ्करो</M>": 8638,
    "ङ्कामा": 8639,
    "ङ्गू": 8640,
    "ङ्घो": 8641,
    "चरणे</M>": 8642,
    "चरेः": 8643,
    "च्चर": 8644,
    "च्चापि</M>": 8645,
    "छ्रम": 8646,
    "जन्नु": 8647,
    "जन्या</M>": 8648,
    "जयद्रथो": 8649,
    "जीविना</M>": 8650,
    "ज्जन</M>": 8651,
    "ज्जया": 8652,
    "ज्रः</M>": 8653,
    "झि": 8654,
    "झै": 8655,
    "ञ्छै": 8656,
    "ञ्छ्रा": 8657,
    "ञ्छ्री": 8658,
    "ञ्जनम्</M>": 8659,
    "ञ्जन्ति</M>": 8660,
    "ञ्जयन्</M>": 8661,
    "ञ्जयम्</M>": 8662,
    "ञ्जयो</M>": 8663,
    "ड्गं</M>": 8664,
    "ड्यो": 8665,
    "ड्र": 8666,
    "ढ्यै": 8667,
    "णैौ": 8668,
    "ण्ठां": 8669,
    "ण्ड्रा": 8670,
    "ण्णो</M>": 8671,
    "ण्णौ": 8672,
    "ण्यमनु": 8673,
    "ततरः</M>": 8674,
    "तत्त</M>": 8675,
    "तत्प": 8676,
    "तत्फलं</M>": 8677,
    "तत्राजगाम</M>": 8678,
    "तत्वं</M>": 8679,
    "तत्सन्</M>": 8680,
    "तदुश्</M>": 8681,
    "तदुस्</M>": 8682,
    "तद्गृ": 8683,
    "तद्भविष्यति</M>": 8684,
    "तद्र": 8685,
    "तद्राव": 8686,
    "तद्रूप": 8687,
    "तपः": 8688,
    "तपते</M>": 8689,
    "तपत्र": 8690,
    "तपत्रं</M>": 8691,
    "तपूर्वो": 8692,
    "तपूर्वो</M>": 8693,
    "तप्ताः</M>": 8694,
    "तप्ते</M>": 8695,
    "तप्रम": 8696,
    "तप्रमा": 8697,
    "तप्स्ये</M>": 8698,
    "तमन्तरि": 8699,
    "तमानो</M>": 8700,
    "तरमे": 8701,
    "तरमेव</M>": 8702,
    "तस्मा</M>": 8703,
    "तस्मान्मा": 8704,
    "ताप्रे": 8705,
    "त्कर्ता</M>": 8706,
    "त्कारा": 8707,
    "त्कारुं": 8708,
    "त्कारेण</M>": 8709,
    "त्कृत्या": 8710,
    "त्क्षे": 8711,
    "त्तत्र</M>": 8712,
    "त्तदा</M>": 8713,
    "त्तमु": 8714,
    "त्तमे": 8715,
    "त्तमौ</M>": 8716,
    "त्तां": 8717,
    "त्तेषु</M>": 8718,
    "त्ना</M>": 8719,
    "त्पतद्भि": 8720,
    "त्पिता</M>": 8721,
    "त्मान": 8722,
    "त्यन</M>": 8723,
    "त्रमेव</M>": 8724,
    "त्रामि": 8725,
    "त्र्यः</M>": 8726,
    "त्वचो": 8727,
    "त्वदर्शी": 8728,
    "त्वद्व": 8729,
    "त्वनाना": 8730,
    "त्वन्</M>": 8731,
    "त्वर्जु": 8732,
    "त्वस": 8733,
    "त्वसमा": 8734,
    "त्वसौ</M>": 8735,
    "त्वस्ति</M>": 8736,
    "त्वान्ना": 8737,
    "त्वारी": 8738,
    "त्वार्जु": 8739,
    "त्वासी": 8740,
    "त्सङ्</M>": 8741,
    "त्समि": 8742,
    "त्साः": 8743,
    "त्सुखं</M>": 8744,
    "त्स्योऽ": 8745,
    "थ्यः</M>": 8746,
    "थ्यमानानां</M>": 8747,
    "थ्व्यां</M>": 8748,
    "दः": 8749,
    "दमनं</M>": 8750,
    "दमन्त</M>": 8751,
    "दम्भे": 8752,
    "दम्भो</M>": 8753,
    "दम्यौ</M>": 8754,
    "दशम्</M>": 8755,
    "दशो</M>": 8756,
    "दश्</M>": 8757,
    "दश्चो": 8758,
    "दश्रू": 8759,
    "दश्वो</M>": 8760,
    "दानमि": 8761,
    "दानर": 8762,
    "दानैः": 8763,
    "देवसन्</M>": 8764,
    "देवसु": 8765,
    "देवानामु": 8766,
    "देवास्त</M>": 8767,
    "द्गि": 8768,
    "द्दशु": 8769,
    "द्देव": 8770,
    "द्धर्म": 8771,
    "द्धैः": 8772,
    "द्बहु": 8773,
    "द्भवो</M>": 8774,
    "द्भ्यश्च</M>": 8775,
    "द्यमानस्य</M>": 8776,
    "द्यमानानां</M>": 8777,
    "द्राघ": 8778,
    "द्राज": 8779,
    "द्राजा</M>": 8780,
    "द्रामो</M>": 8781,
    "द्रीं": 8782,
    "द्रैः": 8783,
    "द्वचनं</M>": 8784,
    "द्वत्</M>": 8785,
    "द्वन्द्वानि</M>": 8786,
    "द्वर्त": 8787,
    "द्वास्थं</M>": 8788,
    "द्वि</M>": 8789,
    "द्विजन्ति</M>": 8790,
    "द्विषो": 8791,
    "धनार्थि": 8792,
    "धन्यां</M>": 8793,
    "धन॑": 8794,
    "धर्मत्</M>": 8795,
    "धर्मान</M>": 8796,
    "धार्तस्य</M>": 8797,
    "ध्यस्य</M>": 8798,
    "ध्वं": 8799,
    "ध्वर": 8800,
    "ध्वसं</M>": 8801,
    "ध्वि</M>": 8802,
    "नगतः</M>": 8803,
    "नगे</M>": 8804,
    "नग्र": 8805,
    "नमना": 8806,
    "नमनि": 8807,
    "नमहं</M>": 8808,
    "नमै": 8809,
    "नम्य</M>": 8810,
    "नरमे": 8811,
    "नराव": 8812,
    "नरी</M>": 8813,
    "नरू": 8814,
    "नरे</M>": 8815,
    "नरौ": 8816,
    "नर्ष": 8817,
    "नां": 8818,
    "नामनु</M>": 8819,
    "नामन्तं</M>": 8820,
    "नामह": 8821,
[...]
